<pad>	0
<s>	0
</s>	0
<unk>	0
.	-2.72609
▁a	-3.21346
▁in	-3.43865
m	-3.79337
▁eine	-3.82216
▁A	-3.86943
s	-4.09557
▁Ein	-4.11305
,	-4.20296
▁the	-4.35109
▁und	-4.56932
▁mit	-4.57803
▁auf	-4.58033
▁on	-4.65582
n	-4.69437
▁Mann	-4.70412
▁is	-4.73883
▁man	-4.75221
▁and	-4.76296
▁	-4.78086
ing	-4.81203
▁of	-4.83235
▁einer	-4.86287
▁with	-4.93317
▁Eine	-4.98758
▁ein	-5.11922
▁an	-5.17934
▁der	-5.25388
e	-5.31069
▁Frau	-5.32522
-	-5.40819
▁woman	-5.42147
▁are	-5.44849
▁die	-5.47008
▁einen	-5.56977
▁to	-5.59058
▁Zwei	-5.59973
en	-5.60195
▁Two	-5.62383
▁im	-5.6317
r	-5.65903
▁at	-5.71193
▁wearing	-5.79855
▁people	-5.82582
▁von	-5.90131
▁sich	-5.93571
▁white	-5.96599
▁shirt	-5.98688
▁Mädchen	-5.99484
▁dem	-5.99998
▁young	-6.02719
▁zu	-6.0527
▁vor	-6.06806
▁black	-6.07014
▁his	-6.08143
▁while	-6.10229
er	-6.12019
▁blue	-6.13326
t	-6.15955
▁steht	-6.18477
▁red	-6.19867
▁sitting	-6.20694
▁girl	-6.23032
▁Männer	-6.23713
▁den	-6.23928
▁dog	-6.24293
ed	-6.24826
▁boy	-6.25638
▁Hund	-6.27315
▁men	-6.27346
▁sitzt	-6.27595
▁standing	-6.28568
▁Junge	-6.29051
▁playing	-6.30359
▁group	-6.34942
▁street	-6.38046
▁Straße	-6.40658
▁look	-6.40821
▁down	-6.42669
▁während	-6.43375
▁her	-6.43607
d	-6.44123
▁walking	-6.44364
▁Gruppe	-6.45565
▁hält	-6.49023
▁spielt	-6.49089
▁seine	-6.50345
▁front	-6.52118
▁bei	-6.54536
▁holding	-6.55158
▁hat	-6.56489
▁Hemd	-6.56509
▁über	-6.56957
y	-6.57154
▁Personen	-6.61861
▁das	-6.63799
▁water	-6.66642
▁The	-6.68175
▁by	-6.71529
▁for	-6.75495
▁blauen	-6.77303
▁Frauen	-6.77363
▁Kind	-6.79013
▁aus	-6.79208
▁up	-6.80157
to	-6.80178
▁neben	-6.80288
▁ihre	-6.80451
▁stehen	-6.81366
▁ist	-6.81513
▁roten	-6.81531
▁weißen	-6.81677
▁Menschen	-6.82
▁durch	-6.82585
ir	-6.83862
▁green	-6.84129
▁sitzen	-6.84379
▁Wasser	-6.84603
▁women	-6.84665
▁spielen	-6.86217
▁Drei	-6.87819
es	-6.88121
▁one	-6.89642
▁outside	-6.90041
▁child	-6.90152
▁geht	-6.91572
▁Thre	-6.91661
▁An	-6.92335
▁trägt	-6.92485
▁little	-6.93192
▁um	-6.93349
▁large	-6.93907
▁fährt	-6.94166
▁Person	-6.94739
▁Kinder	-6.95665
▁be	-6.96339
▁through	-6.96572
▁T	-6.96742
a	-6.9735
▁brown	-7.01221
▁yellow	-7.01478
▁two	-7.02385
▁macht	-7.05157
▁kleines	-7.05217
▁ball	-7.0603
▁springt	-7.07474
▁from	-7.08143
▁zwei	-7.09192
▁entlang	-7.09528
▁person	-7.11803
▁kleiner	-7.11869
▁schwarzen	-7.12259
▁over	-7.15011
st	-7.1554
▁other	-7.15873
▁children	-7.16328
▁next	-7.17227
▁Leute	-7.17375
▁small	-7.18748
▁dressed	-7.21824
▁out	-7.22641
▁orange	-7.25319
▁gehen	-7.25368
▁building	-7.25412
ly	-7.27041
▁etwas	-7.29941
▁riding	-7.30107
▁running	-7.30614
▁People	-7.30958
▁near	-7.31132
▁jacket	-7.31765
▁großen	-7.3363
▁another	-7.33946
▁Hand	-7.33976
▁around	-7.34054
▁Oberteil	-7.34494
▁Man	-7.3592
▁Fahrrad	-7.37021
▁some	-7.3759
▁field	-7.37964
▁sidewalk	-7.38883
'	-7.39825
▁snow	-7.40438
▁beach	-7.41745
l	-7.41777
▁crowd	-7.42703
▁junge	-7.42932
▁pink	-7.43296
▁Mehrer	-7.4487
▁grünen	-7.45106
▁Ball	-7.46017
▁Strand	-7.46475
▁behind	-7.4688
▁läuft	-7.46905
in	-7.47297
▁sind	-7.47491
▁jumping	-7.47578
▁stands	-7.47613
▁table	-7.47701
▁Der	-7.47735
▁sits	-7.48147
▁Jacke	-7.48687
▁für	-7.49346
▁Hintergrund	-7.49349
▁Luft	-7.50393
b	-7.50536
f	-7.51243
▁grass	-7.51311
▁Freien	-7.52526
h	-7.52618
▁Jungen	-7.53282
▁ge	-7.53414
▁background	-7.53815
▁stand	-7.53867
▁schaut	-7.54058
al	-7.54445
▁anderen	-7.54464
▁Kleidung	-7.54948
▁bike	-7.55602
▁hinter	-7.56926
▁top	-7.5712
▁junger	-7.57996
▁nach	-7.58112
▁player	-7.60043
▁city	-7.60103
▁andere	-7.6048
▁Schnee	-7.61614
u	-7.62212
▁wall	-7.6224
▁Tisch	-7.62825
p	-7.63112
w	-7.63616
▁Gebäude	-7.63983
▁off	-7.64445
▁camera	-7.64619
veral	-7.65456
▁weiße	-7.65518
▁gelben	-7.65964
▁air	-7.66325
▁that	-7.66566
▁play	-7.66845
▁park	-7.66893
▁hoch	-7.673
▁Hunde	-7.68094
▁blond	-7.68212
▁Kamera	-7.6831
o	-7.68404
▁girls	-7.68783
▁Hut	-7.68844
▁sie	-7.6908
▁dress	-7.69312
▁kleine	-7.69958
Shirt	-7.70769
▁Nähe	-7.71116
▁wird	-7.71122
▁guitar	-7.7162
▁hold	-7.71869
▁hand	-7.71886
▁vorbei	-7.72446
▁talking	-7.72528
▁something	-7.72944
▁hair	-7.73067
▁S	-7.7393
▁kleinen	-7.74959
▁older	-7.74969
▁Gras	-7.75074
▁Menschenmenge	-7.75074
▁along	-7.75614
▁dogs	-7.75756
▁er	-7.76045
▁schwarzer	-7.76626
▁car	-7.77041
▁unter	-7.77123
▁walks	-7.7736
▁Die	-7.77802
▁lady	-7.77803
▁together	-7.7808
▁soccer	-7.78081
▁Boden	-7.78639
▁food	-7.78917
▁working	-7.79069
▁gray	-7.80336
▁t	-7.80625
▁ihr	-7.80746
▁schwarz	-7.80831
▁game	-7.8118
▁picture	-7.82125
▁sein	-7.82563
▁smiling	-7.82911
▁rennt	-7.84377
▁has	-7.84552
▁Vier	-7.85001
▁Asian	-7.85901
▁Se	-7.86295
k	-7.86984
ä	-7.87885
▁walk	-7.87971
▁boys	-7.88334
▁Gitarre	-7.88341
▁plays	-7.88801
▁zusammen	-7.88908
▁road	-7.90148
ch	-7.91201
▁sit	-7.91637
▁Four	-7.91734
▁Kleid	-7.91773
▁carry	-7.91947
▁him	-7.92053
▁it	-7.92429
▁bench	-7.93222
▁head	-7.93613
▁blaue	-7.93752
▁pants	-7.94635
▁glasses	-7.94667
i	-7.94926
▁Feld	-7.95623
▁stage	-7.95635
▁Stadt	-7.96359
▁rote	-7.96473
▁shorts	-7.96595
▁couple	-7.96618
▁dirt	-7.96953
▁Kopf	-7.97623
▁Bühne	-7.97624
▁side	-7.98084
▁herum	-7.98319
▁tree	-7.98694
▁face	-7.98699
▁bicycle	-7.98722
▁älterer	-7.98934
▁rock	-7.99317
▁baby	-7.99335
▁Foto	-8.00231
▁Brille	-8.0036
▁fahren	-8.00825
▁race	-8.01041
each	-8.01338
▁draußen	-8.01756
▁Park	-8.02116
▁back	-8.02143
▁Gehweg	-8.03172
▁tak	-8.04073
▁Jeans	-8.04243
▁gekleidete	-8.04426
▁old	-8.04459
▁des	-8.04586
▁pool	-8.04645
▁male	-8.04783
▁long	-8.0497
▁Baby	-8.05334
▁sehen	-8.05784
an	-8.06355
▁hinunter	-8.06433
▁dabei	-8.0792
cross	-8.08192
▁doing	-8.08518
▁blickt	-8.08668
▁dark	-8.08669
ung	-8.09578
▁als	-8.10724
▁watching	-8.11304
▁sand	-8.11351
▁jeans	-8.11519
▁area	-8.11711
▁Skateboard	-8.11953
▁boat	-8.12023
▁middle	-8.12507
▁braunen	-8.1275
ü	-8.13043
▁P	-8.13066
▁weißer	-8.13206
▁liegt	-8.13293
▁versucht	-8.13688
▁who	-8.13776
▁Essen	-8.14484
▁he	-8.1481
▁arbeitet	-8.14883
▁Paar	-8.14889
▁Bank	-8.15285
▁laufen	-8.15381
▁wie	-8.15552
▁day	-8.16184
▁jumps	-8.16467
ter	-8.16474
▁hands	-8.16641
ge	-8.16759
▁tragen	-8.16934
c	-8.1699
on	-8.17085
▁ground	-8.17318
▁Dame	-8.18056
▁room	-8.18143
▁große	-8.18143
el	-8.18214
▁sign	-8.18991
▁ältere	-8.19398
le	-8.19409
▁performing	-8.19446
▁female	-8.19843
▁F	-8.19857
▁Boot	-8.20239
▁watch	-8.20588
▁Wand	-8.20658
▁eating	-8.20793
g	-8.20928
▁schauen	-8.21084
▁machen	-8.21085
or	-8.21118
▁guy	-8.21137
▁lächelt	-8.21511
▁suit	-8.21574
▁coat	-8.21623
ten	-8.21961
▁baseball	-8.22806
▁mouth	-8.23239
sch	-8.23611
▁brauner	-8.23622
▁horse	-8.24219
▁using	-8.24559
▁line	-8.24929
▁football	-8.24999
te	-8.25437
▁store	-8.25994
▁striped	-8.26382
▁ihm	-8.26787
▁orangefarbenen	-8.26816
▁mountain	-8.26953
▁purple	-8.27239
▁Bürgersteig	-8.27239
▁band	-8.27376
▁microphone	-8.27694
▁go	-8.28009
▁arbeiten	-8.2861
shirt	-8.28883
▁Hose	-8.29082
▁toward	-8.29998
haired	-8.30304
▁Fußball	-8.3046
▁zeigt	-8.30465
ar	-8.30618
z	-8.30667
▁uniform	-8.30747
▁halten	-8.31048
▁enjoy	-8.31407
▁sieht	-8.31407
▁train	-8.31729
▁rot	-8.318
▁Young	-8.31881
▁drei	-8.31881
▁spricht	-8.31881
▁unterhalten	-8.31886
▁liest	-8.32388
▁runs	-8.32496
▁under	-8.32526
▁past	-8.32641
▁Auto	-8.32686
▁blau	-8.32935
▁junges	-8.33046
▁rosa	-8.33322
et	-8.33412
▁tennis	-8.338
▁sunglasses	-8.34284
▁reading	-8.34359
▁ver	-8.34796
▁three	-8.35755
▁Haaren	-8.35797
▁clothing	-8.35931
ischen	-8.36223
se	-8.36893
▁There	-8.37368
de	-8.37794
it	-8.38058
▁Gesicht	-8.38231
▁Pferd	-8.38401
▁Tag	-8.38424
▁basketball	-8.38776
▁toy	-8.38849
▁Sonnenbrille	-8.38855
▁Helm	-8.38899
▁Holz	-8.39134
▁ocean	-8.39273
▁show	-8.3947
re	-8.39518
▁helmet	-8.3967
▁players	-8.399
▁M	-8.39939
▁Bild	-8.40068
▁watches	-8.40435
▁dur	-8.40832
▁its	-8.40989
ern	-8.41045
at	-8.41287
▁Hosen	-8.41327
▁work	-8.41334
▁On	-8.41689
▁restaurant	-8.41884
▁climbing	-8.42032
▁schwarze	-8.42106
▁Sand	-8.424
▁kids	-8.42871
▁again	-8.42919
▁se	-8.431
▁window	-8.43933
ic	-8.44157
▁elder	-8.45064
▁sun	-8.45154
▁try	-8.45413
▁Felsen	-8.45637
▁team	-8.45962
▁dancing	-8.46154
▁Baum	-8.46587
ur	-8.46713
▁chair	-8.46726
▁singt	-8.4673
▁grauen	-8.46763
ers	-8.47313
▁throw	-8.47439
▁ihnen	-8.48014
den	-8.48342
▁rides	-8.48631
▁s	-8.48817
▁jump	-8.493
▁K	-8.49477
▁Mantel	-8.49497
▁Spielzeug	-8.495
as	-8.49763
ri	-8.49911
▁Mikrofon	-8.50065
der	-8.50114
▁ab	-8.50629
▁Fenster	-8.50637
▁outdoor	-8.50701
▁posiert	-8.51211
▁floor	-8.51213
▁posing	-8.51214
▁Band	-8.51253
▁wooden	-8.51402
▁all	-8.51432
▁darauf	-8.51789
▁about	-8.51805
▁blonde	-8.51812
▁B	-8.51832
▁U	-8.51874
▁hav	-8.5188
tting	-8.52214
▁Shorts	-8.52388
▁cap	-8.52453
▁klettert	-8.52956
▁covered	-8.53117
▁grüne	-8.53478
▁Wald	-8.53535
▁führt	-8.53544
▁trees	-8.54045
▁bag	-8.54084
▁befindet	-8.54145
▁Restaurant	-8.54272
▁waiting	-8.54467
▁or	-8.5467
▁swimming	-8.54736
▁weiß	-8.5481
▁skateboard	-8.54938
▁colorful	-8.55349
▁Spiel	-8.55693
▁bar	-8.56205
▁light	-8.5625
▁Meer	-8.57037
▁cart	-8.57141
▁construction	-8.57149
"	-8.57529
▁fence	-8.57602
▁hill	-8.57758
his	-8.57776
▁Motorrad	-8.58371
▁workers	-8.5838
▁very	-8.58556
▁"	-8.58613
▁Berg	-8.58652
ng	-8.58752
▁pull	-8.59001
▁ice	-8.59019
▁wirft	-8.59041
▁Arbeiter	-8.59124
▁busy	-8.59764
▁blauer	-8.59972
▁Weg	-8.6028
▁singing	-8.6037
▁Das	-8.60798
▁Woman	-8.60886
▁sehr	-8.60898
▁bus	-8.60904
▁lean	-8.60931
▁gekleideter	-8.61014
▁Haar	-8.61302
kleidung	-8.61341
▁truck	-8.61567
▁rennen	-8.61755
oder	-8.61773
▁schwarzem	-8.61775
▁Pullover	-8.62173
▁high	-8.62189
▁Raum	-8.6281
lo	-8.63122
▁catch	-8.63276
▁Spieler	-8.63823
▁cellphone	-8.64113
▁H	-8.64125
▁essen	-8.64194
▁brick	-8.64771
▁Men	-8.65187
▁tan	-8.65217
ig	-8.65242
▁c	-8.65292
ol	-8.65433
ie	-8.65545
▁einige	-8.6558
us	-8.65584
▁book	-8.65768
▁Anzug	-8.6613
▁zum	-8.66419
ro	-8.66558
▁paper	-8.66768
▁Wiese	-8.66771
▁ride	-8.66805
▁laying	-8.67088
▁open	-8.67303
▁mehrere	-8.67448
▁anderer	-8.67828
ive	-8.67901
▁bright	-8.68056
▁wartet	-8.68128
▁langen	-8.68547
▁E	-8.68623
▁clothes	-8.68845
▁Blumen	-8.68927
▁roter	-8.69182
▁stick	-8.69224
▁she	-8.69296
▁path	-8.69495
▁Frisbee	-8.695
▁kitchen	-8.69501
▁Bluse	-8.69501
▁market	-8.69505
▁isst	-8.69528
▁b	-8.6958
▁Trikot	-8.69965
▁werden	-8.70196
▁inside	-8.70457
▁posieren	-8.70895
▁metal	-8.70895
▁river	-8.70895
▁making	-8.70896
▁piece	-8.7094
▁springen	-8.71032
▁C	-8.71191
▁get	-8.71245
▁viele	-8.71251
▁track	-8.71342
▁grassy	-8.71358
▁beard	-8.71437
▁Arm	-8.71914
▁umbrella	-8.72067
▁Kindern	-8.72095
▁outfit	-8.72101
▁gestreiften	-8.72132
▁g	-8.7268
▁motorcycle	-8.72784
▁shop	-8.73016
▁Oberkörper	-8.73023
▁Stuhl	-8.73023
▁perform	-8.73096
▁re	-8.73246
▁big	-8.73761
▁body	-8.73801
▁stone	-8.73845
▁run	-8.73963
▁full	-8.74089
▁bunte	-8.74274
▁swing	-8.74285
▁Schild	-8.74332
▁takes	-8.74461
▁belebte	-8.74467
▁asiatische	-8.74486
▁zw	-8.74551
il	-8.74913
▁Handy	-8.75037
▁Hügel	-8.75197
▁Mütze	-8.75198
▁night	-8.75199
▁voller	-8.75334
▁W	-8.75852
ion	-8.75919
▁Fünf	-8.75932
▁Viele	-8.75932
▁ready	-8.76694
▁Männern	-8.7688
▁others	-8.77441
▁tanzen	-8.77448
bereitet	-8.77797
S	-8.78076
▁Buch	-8.78235
▁Fluss	-8.78928
▁betrachtet	-8.78928
▁warten	-8.78935
▁tank	-8.79012
▁In	-8.79365
▁sweater	-8.79715
▁hard	-8.80462
▁Radfahrer	-8.80465
ra	-8.80513
colored	-8.80743
▁board	-8.80847
ige	-8.80874
▁photo	-8.81236
▁lake	-8.81241
▁Rennen	-8.81347
▁Bauarbeiter	-8.82018
▁schläft	-8.82805
▁trick	-8.82873
▁arm	-8.8343
▁hats	-8.83449
▁Stock	-8.83603
▁zieht	-8.83663
▁house	-8.83677
Five	-8.83894
▁vo	-8.84021
▁painting	-8.84091
▁Football	-8.8443
▁oben	-8.8452
▁surround	-8.85185
▁Küche	-8.85205
▁above	-8.85205
▁Maul	-8.85211
▁alter	-8.85247
v	-8.85521
▁Sch	-8.8599
▁lehnt	-8.86018
▁reitet	-8.86018
▁shirts	-8.86058
is	-8.86436
▁dance	-8.86451
▁so	-8.86676
▁Kleinkind	-8.87272
▁un	-8.87503
▁Händen	-8.87511
▁Fuß	-8.87656
▁wave	-8.87664
▁beobachtet	-8.87664
▁vest	-8.87666
▁Leuten	-8.87682
be	-8.88133
▁p	-8.882
ist	-8.8836
▁backpack	-8.88498
▁miteinander	-8.88959
▁snowy	-8.89113
▁kick	-8.89151
ut	-8.89152
▁See	-8.89165
▁Rucksack	-8.89338
▁object	-8.89338
▁shopping	-8.89347
▁Bäumen	-8.89614
▁worker	-8.89727
▁music	-8.90038
▁paar	-8.90185
▁tanzt	-8.90185
▁beside	-8.9022
▁braune	-8.90783
id	-8.90822
▁push	-8.91502
▁Zaun	-8.91902
looking	-8.91936
▁kid	-8.91993
▁wo	-8.92519
▁es	-8.92688
▁Zug	-8.9286
▁braun	-8.92993
li	-8.93019
▁Bus	-8.9303
▁uniforms	-8.93231
weißer	-8.93284
▁machine	-8.93648
▁crowded	-8.93664
▁bereit	-8.93726
▁smiles	-8.93741
▁pole	-8.93749
ft	-8.94081
▁G	-8.94094
▁Metall	-8.94466
▁befinden	-8.94534
▁männliche	-8.94534
▁schiebt	-8.94534
▁schneebedeckte	-8.94534
▁gear	-8.94534
▁toddler	-8.94536
▁event	-8.94551
ny	-8.94737
ö	-8.95269
▁haben	-8.95428
out	-8.95842
▁k	-8.95865
ul	-8.9588
▁drinking	-8.96081
▁da	-8.96152
▁Haus	-8.96224
▁outdoors	-8.96225
▁Schwimmbecken	-8.96328
▁phone	-8.96328
▁adults	-8.96328
▁sch	-8.96466
▁pass	-8.96754
▁gegen	-8.9727
▁Rücken	-8.97337
▁short	-8.97413
▁many	-8.9753
em	-8.97664
▁set	-8.97799
▁Seil	-8.97829
▁plai	-8.98155
▁Seite	-8.9816
▁orangefarbene	-8.98174
▁Basketball	-8.98931
▁Markt	-8.99073
▁fountain	-8.9908
▁Familie	-8.99082
▁Welle	-8.99095
▁gathered	-8.99211
▁umgeben	-9.00022
▁costume	-9.00235
▁hanging	-9.00343
▁bet	-9.00398
▁w	-9.00422
▁R	-9.00616
▁kurzen	-9.00634
▁Treppe	-9.00929
▁prepare	-9.00958
▁subway	-9.00958
▁bridge	-9.00959
▁African	-9.0098
age	-9.01502
▁lot	-9.01594
▁lächeln	-9.01756
hair	-9.01823
▁Eis	-9.01875
▁fire	-9.01892
▁family	-9.0191
▁f	-9.02838
▁preparing	-9.02872
▁karierte	-9.02909
▁rope	-9.0314
▁Diese	-9.03205
▁flowers	-9.03317
▁herunter	-9.03705
▁Reihe	-9.03843
▁verkauft	-9.03843
▁gerade	-9.03843
▁versammelt	-9.03847
Bahn	-9.03967
▁arms	-9.03969
▁freie	-9.04194
▁Straßen	-9.04215
igen	-9.04285
▁take	-9.04557
▁mitten	-9.04634
▁gelbe	-9.04781
▁police	-9.04813
▁attempt	-9.04823
▁computer	-9.04823
▁beautiful	-9.04824
▁forest	-9.04832
▁Geschäft	-9.04836
▁hockey	-9.04869
▁away	-9.04875
▁sleeping	-9.04884
▁like	-9.0503
▁Musik	-9.05187
▁steps	-9.05202
▁trinkt	-9.05813
▁Children	-9.05813
▁graffiti	-9.05814
▁after	-9.05828
▁does	-9.05895
▁v	-9.06116
▁clean	-9.06129
ab	-9.06526
▁fishing	-9.06602
▁appear	-9.06813
▁adult	-9.07172
▁D	-9.07265
ber	-9.07411
▁Schwarz	-9.07823
▁Teenager	-9.07837
weißen	-9.08224
▁pose	-9.08251
▁rosafarbenen	-9.08292
▁ihn	-9.08472
▁Sport	-9.08844
▁Ma	-9.08848
▁four	-9.08852
▁asian	-9.08873
▁schneidet	-9.08892
▁hängt	-9.08953
im	-9.09062
▁fish	-9.0907
▁gekleidet	-9.09157
▁guys	-9.09746
▁Richtung	-9.09874
▁telefoniert	-9.10916
▁stairs	-9.10917
▁zur	-9.11096
▁Sprung	-9.11967
▁Zeitung	-9.11996
▁spazieren	-9.12026
▁Wagen	-9.12033
▁Gewässer	-9.12409
▁shoes	-9.12623
▁malt	-9.13035
▁fangen	-9.13037
▁shirtless	-9.13161
ll	-9.13389
▁selling	-9.13423
▁putt	-9.13724
▁graue	-9.13756
▁St	-9.13765
▁American	-9.13784
▁teil	-9.13925
▁star	-9.13943
▁Ski	-9.14077
▁setting	-9.14151
▁tall	-9.1416
▁nimmt	-9.14187
▁Be	-9.14285
▁Stein	-9.14325
ck	-9.14489
▁gelb	-9.14515
▁Papier	-9.14971
▁glass	-9.15088
▁whi	-9.15097
▁number	-9.15195
▁schwimmt	-9.15195
▁Some	-9.15197
▁sonnige	-9.15202
▁bath	-9.15258
▁view	-9.15528
chen	-9.15952
▁alte	-9.16156
▁großer	-9.16158
▁Sonne	-9.16294
▁racing	-9.16294
▁Geländer	-9.16368
▁Zuschauer	-9.16485
▁Fußballspieler	-9.16504
ween	-9.16557
▁de	-9.1659
ment	-9.16625
▁com	-9.16646
▁Autos	-9.16697
▁slide	-9.17138
▁drink	-9.17161
▁blicken	-9.17405
▁cowboy	-9.17405
▁Brücke	-9.17405
▁Kopfbedeckung	-9.17405
▁someone	-9.17428
▁schlägt	-9.17438
▁Computer	-9.17448
▁corner	-9.17448
▁wood	-9.17575
▁Hände	-9.17611
▁Weste	-9.17622
ve	-9.18076
▁Mutter	-9.18532
▁hinauf	-9.18532
▁ramp	-9.18533
▁both	-9.18533
▁parade	-9.18537
▁match	-9.18581
▁Ge	-9.18594
▁L	-9.18611
▁flower	-9.19158
▁Bart	-9.19235
▁Baseball	-9.19274
▁Schal	-9.19425
▁rocks	-9.1945
▁fe	-9.196
▁Shirt	-9.19639
▁Himmel	-9.19665
▁Publikum	-9.19665
▁public	-9.19665
▁volleyball	-9.19665
▁fliegt	-9.19665
▁sweatshirt	-9.19669
▁rain	-9.19685
▁party	-9.19822
▁fest	-9.19877
▁Tasche	-9.1989
uch	-9.19902
▁can	-9.20239
▁flag	-9.20308
aged	-9.20477
▁have	-9.20643
▁Platz	-9.20814
▁equipment	-9.20814
▁kämpfen	-9.20814
▁ladies	-9.20814
▁hebt	-9.20815
▁chairs	-9.20821
▁couch	-9.20824
▁tent	-9.20839
▁laughing	-9.2107
▁aussehende	-9.21171
▁Graffiti	-9.21457
up	-9.21469
▁grün	-9.2154
▁trail	-9.21677
kt	-9.21786
ine	-9.21986
▁pick	-9.21989
▁statue	-9.2213
▁use	-9.22137
ver	-9.2227
B	-9.22307
▁display	-9.23154
▁dunklen	-9.23347
▁instruments	-9.23379
▁hit	-9.23383
ieren	-9.2362
gen	-9.2396
iert	-9.24038
ag	-9.24222
hr	-9.24248
▁plastic	-9.24344
▁Rock	-9.24347
▁winter	-9.24349
pe	-9.24703
▁hohen	-9.24772
▁Erwachsene	-9.2481
▁vier	-9.24936
▁concrete	-9.25549
▁playground	-9.25549
▁Stück	-9.2556
▁Spielplatz	-9.25561
▁cup	-9.25568
▁reach	-9.25573
▁Hof	-9.25685
▁gestreifte	-9.25969
▁woods	-9.26136
▁Gebäudes	-9.26552
▁verschiedene	-9.26678
▁Decke	-9.26756
▁dock	-9.26782
▁door	-9.26786
▁Hemden	-9.27366
▁poses	-9.27542
▁Auf	-9.27939
▁Glas	-9.28
▁co	-9.28002
▁midair	-9.28003
▁yard	-9.28003
▁mittlere	-9.28004
▁zuschauen	-9.2804
▁Mitte	-9.28083
▁asiatischer	-9.28706
▁skirt	-9.28829
▁Schirm	-9.28874
▁ski	-9.29031
▁carrie	-9.29107
ling	-9.29178
▁Zelt	-9.29253
▁shovel	-9.29253
▁attire	-9.29254
▁Bier	-9.2927
▁Schaukel	-9.2928
▁net	-9.29424
T	-9.29663
▁beer	-9.29937
▁pictures	-9.30148
▁sp	-9.3045
▁davon	-9.30519
▁Regen	-9.30524
A	-9.3095
ste	-9.3134
man	-9.317
▁dunkelhäutige	-9.31801
▁genießt	-9.31801
▁überqueren	-9.31801
▁nackte	-9.31801
▁Mauer	-9.31801
▁sky	-9.31804
▁Dach	-9.31826
▁O	-9.32091
▁skate	-9.32756
▁Fisch	-9.32924
▁paint	-9.33057
just	-9.33093
▁Jemand	-9.33099
▁Ufer	-9.331
▁apron	-9.331
▁Blick	-9.33102
▁vendor	-9.33102
▁what	-9.33109
fahrer	-9.3313
▁seated	-9.33193
▁blondes	-9.33497
▁reads	-9.33513
▁cutt	-9.3359
▁bed	-9.33878
spieler	-9.33961
rad	-9.33996
▁Sp	-9.34188
ant	-9.34233
▁st	-9.34266
▁benutzt	-9.34415
▁cream	-9.34415
▁distance	-9.34415
▁left	-9.34416
▁home	-9.34418
▁lacht	-9.34423
▁grill	-9.34459
▁tritt	-9.3465
▁Kunststück	-9.35248
▁Zuschauern	-9.35517
ct	-9.35613
▁Beton	-9.35742
▁Feuer	-9.35749
▁Gemüse	-9.35749
▁Surfer	-9.35749
▁school	-9.35749
▁Pool	-9.35757
▁turn	-9.35921
▁Alters	-9.35988
▁cooking	-9.36075
ack	-9.36182
▁kneel	-9.36222
halb	-9.36224
▁wear	-9.36303
ti	-9.36635
▁do	-9.36761
▁La	-9.36836
▁Rasen	-9.371
▁Little	-9.371
▁Sofa	-9.371
▁newspaper	-9.371
▁öffentliche	-9.371
▁where	-9.371
▁Fahrzeug	-9.371
▁cliff	-9.37101
▁Menge	-9.3716
▁Augen	-9.37263
▁nahe	-9.37362
▁rider	-9.3752
E	-9.37616
▁Bar	-9.37722
ick	-9.38024
▁box	-9.38365
geschäft	-9.3846
▁Lebensmittel	-9.3847
▁Zigarette	-9.3847
▁Schürze	-9.3847
▁cigarette	-9.3847
▁unterhält	-9.38479
▁station	-9.38479
▁städtische	-9.385
top	-9.38577
ish	-9.38658
▁works	-9.38707
▁Tor	-9.38831
▁gather	-9.38846
▁Mannes	-9.39048
▁cross	-9.3906
▁art	-9.39299
▁Mensch	-9.39543
▁lila	-9.39711
▁instrument	-9.3973
ot	-9.39763
▁vests	-9.39857
▁zusieht	-9.39859
▁court	-9.39859
▁fix	-9.39861
▁Nummer	-9.39862
▁edge	-9.39865
▁stop	-9.39902
▁Boy	-9.39931
▁Baseballspieler	-9.39952
▁Mannschaft	-9.39961
j	-9.40029
▁offene	-9.40327
▁bikes	-9.40468
▁alten	-9.40478
pa	-9.40628
anzug	-9.40672
▁cut	-9.40801
▁bags	-9.40974
▁kurz	-9.40997
zu	-9.41253
▁gleich	-9.41267
▁blanket	-9.41268
▁zuschaut	-9.41313
▁nebeneinander	-9.41352
che	-9.41413
ke	-9.41464
pf	-9.41522
au	-9.41683
os	-9.41707
▁crossing	-9.4213
▁Uniform	-9.42353
elt	-9.42444
▁jersey	-9.42452
▁make	-9.42476
ne	-9.42494
ff	-9.42524
▁außer	-9.42696
▁lässt	-9.42696
▁scarf	-9.42696
▁structure	-9.42696
▁right	-9.42701
▁mask	-9.42711
▁zusehen	-9.42878
▁bedeckt	-9.42884
▁Basketballspiel	-9.43024
▁wait	-9.43122
ation	-9.43183
▁Typ	-9.43766
▁no	-9.43831
cht	-9.44026
ce	-9.44081
▁I	-9.44113
▁Gegenstand	-9.44145
▁Women	-9.44145
▁nearby	-9.44145
▁Grill	-9.44148
▁nicht	-9.44151
▁nachts	-9.44167
▁snowboarder	-9.44259
▁filled	-9.44284
▁l	-9.44627
ball	-9.44767
▁skateboarder	-9.44895
▁driving	-9.45616
▁versuchen	-9.45616
▁pile	-9.45618
▁hinten	-9.45635
▁Bett	-9.45635
▁Mund	-9.45638
▁place	-9.45688
und	-9.4576
ous	-9.46105
▁flip	-9.46238
weiße	-9.46446
▁N	-9.46482
▁mountains	-9.46557
pp	-9.46712
▁Herr	-9.46728
ort	-9.46823
▁bottle	-9.4692
▁fruit	-9.46924
▁smile	-9.46951
▁sort	-9.47047
▁check	-9.47083
▁großes	-9.47103
▁shore	-9.47104
▁Group	-9.47108
▁beobachten	-9.47108
▁mother	-9.47108
▁scheint	-9.47108
▁fl	-9.4711
▁leaves	-9.47142
arious	-9.4717
▁bull	-9.47171
▁gibt	-9.47218
▁führen	-9.47257
▁treten	-9.47334
▁bowling	-9.47898
ate	-9.47952
▁weg	-9.48028
▁Musiker	-9.48052
lich	-9.48062
▁friends	-9.48069
▁hell	-9.48458
▁new	-9.48559
▁Outfit	-9.48596
▁Rampe	-9.48624
▁Wanderer	-9.48626
▁boots	-9.48627
▁thi	-9.48635
▁trinken	-9.48656
▁lächelnde	-9.4875
artial	-9.4881
th	-9.48846
▁wet	-9.48965
ier	-9.49156
▁Art	-9.49231
▁Flagge	-9.49237
M	-9.49293
tur	-9.49328
teil	-9.49478
▁horses	-9.49788
▁parked	-9.49839
x	-9.49871
ell	-9.49903
▁vehicle	-9.50026
▁Garten	-9.50162
▁fängt	-9.50162
▁goggles	-9.50162
▁kniet	-9.50162
▁raucht	-9.50162
▁Rodeo	-9.50162
▁Armen	-9.5018
▁Maschine	-9.50195
▁drums	-9.50215
▁block	-9.50266
tt	-9.50325
▁desk	-9.50327
▁Snowboarder	-9.50332
▁beide	-9.50607
▁Fotos	-9.50739
▁Stange	-9.50781
stand	-9.50803
▁bowl	-9.50957
▁gold	-9.51116
▁liegen	-9.51221
ka	-9.51306
▁talks	-9.51506
iz	-9.5153
wagen	-9.51595
▁buildings	-9.51697
▁betrachten	-9.51724
▁bikini	-9.51724
▁concert	-9.51724
▁ladder	-9.51724
▁Ferne	-9.51725
▁Läufer	-9.51725
▁shot	-9.51728
▁time	-9.51812
▁Indian	-9.51834
▁verschneiten	-9.51921
▁Stufen	-9.51936
▁painted	-9.5196
▁Nacht	-9.52062
▁V	-9.52291
▁railing	-9.52498
▁orangen	-9.52622
lying	-9.52695
▁wash	-9.52899
▁Gehsteig	-9.53311
▁coffee	-9.53311
▁smoking	-9.53311
▁Weiß	-9.5332
op	-9.53369
▁break	-9.53401
▁surfer	-9.53505
▁flying	-9.53626
ert	-9.5376
▁rocky	-9.53967
▁giv	-9.53985
▁dresses	-9.54008
▁Kleine	-9.54013
▁eyes	-9.54196
weg	-9.54223
▁ent	-9.54264
▁bucket	-9.54863
▁Obst	-9.54917
▁roof	-9.54917
▁conversation	-9.54924
▁safety	-9.54924
▁bunch	-9.54925
▁Old	-9.54928
▁Eimer	-9.54928
▁Veranstaltung	-9.54973
▁Trikots	-9.55555
▁He	-9.55613
tisch	-9.55625
ping	-9.55722
▁sitzende	-9.55943
▁gentleman	-9.56564
▁practicing	-9.56564
▁purse	-9.56564
▁bicyclist	-9.56566
▁spectators	-9.56569
▁Tennisball	-9.56572
▁meal	-9.56597
▁unten	-9.5662
▁swinging	-9.56766
bei	-9.56887
▁arts	-9.56917
▁gloves	-9.57083
▁flags	-9.57302
▁einander	-9.57317
▁rail	-9.57421
Spieler	-9.57674
▁Tennis	-9.5798
▁Kostüm	-9.58081
▁cars	-9.58214
▁Sonnenuntergang	-9.5823
▁competition	-9.5823
▁different	-9.5823
▁empty	-9.5823
▁opposi	-9.5823
▁Braut	-9.58231
▁waves	-9.58231
▁Leiter	-9.58235
▁New	-9.58239
lt	-9.58245
▁listening	-9.58392
▁Laden	-9.58526
▁diese	-9.58915
▁skier	-9.58918
board	-9.59003
▁jungen	-9.59347
▁costumes	-9.59525
▁lachen	-9.59569
ken	-9.59581
▁lächelnd	-9.59773
▁Aufschrift	-9.59925
▁Statue	-9.59925
▁greift	-9.59926
▁scene	-9.59926
▁float	-9.59929
▁Land	-9.59934
▁cake	-9.59939
▁Skifahrer	-9.59939
▁balloon	-9.59968
hört	-9.59981
echs	-9.59995
▁zurück	-9.59999
▁rutscht	-9.60015
▁tie	-9.60018
▁hole	-9.60173
weiß	-9.60271
▁items	-9.60404
▁Pa	-9.60876
▁lay	-9.60923
▁Rad	-9.61044
he	-9.61231
ill	-9.61533
▁Bikini	-9.61648
▁Brunnen	-9.61649
▁audience	-9.61649
▁fotografiert	-9.61649
▁hilft	-9.61649
▁scooter	-9.61649
▁Vater	-9.6165
▁spray	-9.6165
▁lawn	-9.6165
▁surfboard	-9.61654
▁base	-9.61717
▁blonden	-9.61738
▁chas	-9.61819
▁Kleidern	-9.62035
▁lange	-9.62063
▁parking	-9.62147
▁skateboarding	-9.62276
ei	-9.62501
P	-9.62544
▁help	-9.62583
▁younger	-9.6259
▁Tür	-9.6302
▁Polizist	-9.6303
▁put	-9.63054
äu	-9.63125
▁Schüler	-9.63404
▁rodeo	-9.63404
▁among	-9.63404
▁counter	-9.63404
▁Someone	-9.6341
▁bärtiger	-9.63446
▁onlookers	-9.63479
▁Girl	-9.6348
▁surft	-9.63545
▁Hüten	-9.63598
▁lit	-9.63805
auf	-9.63935
▁there	-9.64195
▁golden	-9.64362
▁slid	-9.64592
ight	-9.64754
▁leaps	-9.64896
ang	-9.64946
▁beiden	-9.64947
▁Bei	-9.64963
▁platform	-9.6519
▁unbefestigte	-9.6519
▁überquert	-9.6519
▁silver	-9.65193
▁roll	-9.65207
▁artist	-9.65208
▁Motorradfahrer	-9.65215
▁mat	-9.65267
▁leuchtend	-9.65279
▁basket	-9.65297
▁hot	-9.65312
▁werfen	-9.65321
▁tire	-9.6533
▁tattoo	-9.65355
▁stroller	-9.65403
▁pointing	-9.65484
▁Polizisten	-9.65571
▁Kostümen	-9.65591
▁Haare	-9.65661
▁vegetables	-9.65664
all	-9.6573
fore	-9.65905
▁class	-9.65915
▁drinks	-9.66079
▁viel	-9.66103
bar	-9.66122
L	-9.66171
▁gathering	-9.66254
ap	-9.66459
▁grüner	-9.66634
▁tradition	-9.67002
ein	-9.67004
▁Kajak	-9.67008
▁Sweatshirt	-9.67008
▁collar	-9.67008
▁kayak	-9.67008
▁versammeln	-9.67008
▁cement	-9.67008
▁facing	-9.6701
▁Vor	-9.67039
▁feet	-9.67044
▁bird	-9.6717
▁legt	-9.67187
▁gut	-9.67262
laden	-9.67775
F	-9.67987
bereiten	-9.68407
▁sports	-9.68491
einander	-9.68582
amp	-9.68742
▁competing	-9.6886
▁gemeinsam	-9.6886
▁violin	-9.6886
▁wedding	-9.6886
▁Korb	-9.6886
▁Rutsche	-9.6886
▁Six	-9.68869
▁Leine	-9.68871
▁Rot	-9.68877
▁lap	-9.68891
▁cat	-9.68894
rau	-9.68924
▁Volleyball	-9.68998
▁nehmen	-9.69049
▁Roller	-9.69117
▁Damen	-9.69267
iger	-9.69433
▁speaking	-9.69487
▁reden	-9.69489
▁Re	-9.69499
▁gelbem	-9.69524
R	-9.69628
ock	-9.6973
K	-9.69894
▁row	-9.69943
▁biker	-9.70222
▁Arme	-9.7028
▁bicycles	-9.70458
platz	-9.70498
ub	-9.70561
▁Arbeit	-9.70593
▁business	-9.70746
▁classroom	-9.70746
▁lesen	-9.70749
▁rothaarige	-9.7075
▁laptop	-9.70755
▁ganz	-9.70757
▁kommt	-9.70869
▁amerikanische	-9.70871
▁huge	-9.70903
eln	-9.70973
▁Cowboy	-9.70978
▁Kids	-9.7099
▁Mo	-9.71021
▁Team	-9.71126
ther	-9.71126
▁jackets	-9.71436
▁son	-9.71526
▁fa	-9.71858
aus	-9.71946
▁talk	-9.72128
▁Arbeits	-9.72233
▁Regenschirm	-9.72289
icht	-9.72406
way	-9.72409
▁Pfad	-9.72669
▁clown	-9.72669
▁genießen	-9.72669
▁jüngere	-9.72669
▁Parade	-9.7267
▁schreibt	-9.7267
▁Waren	-9.72671
▁Ende	-9.72672
▁lift	-9.72719
▁screen	-9.72728
▁guckt	-9.72801
▁animal	-9.72934
▁stellt	-9.72999
if	-9.73117
▁surfing	-9.73273
enden	-9.73277
innen	-9.73354
ß	-9.73364
▁students	-9.73381
▁sings	-9.73412
▁Getränk	-9.73543
▁wheel	-9.73544
spiel	-9.73596
▁was	-9.73634
▁Da	-9.73722
▁climbs	-9.7396
▁Geschäfts	-9.74019
ty	-9.74195
▁Schutzhelm	-9.74256
▁Westen	-9.74277
▁Tanz	-9.74305
▁Schlagzeug	-9.74343
▁suits	-9.74352
▁close	-9.74392
we	-9.74563
▁Mikrophon	-9.7463
▁leeren	-9.7463
▁mirror	-9.7463
▁canoe	-9.74631
▁military	-9.74632
▁bride	-9.74675
▁alley	-9.74755
▁J	-9.74759
▁Soldaten	-9.7479
▁lilafarbene	-9.74839
▁Stühlen	-9.7486
▁helmets	-9.75077
▁leap	-9.75116
▁kissing	-9.75209
▁Pferde	-9.75666
▁rosafarbene	-9.75719
mitten	-9.75796
▁give	-9.75833
▁Wellen	-9.76605
▁Vogel	-9.7663
▁York	-9.7663
▁electric	-9.7663
▁ohne	-9.7663
▁writing	-9.7663
▁Umgebung	-9.7663
▁same	-9.76632
▁streckt	-9.76632
▁Baustelle	-9.76655
▁walkway	-9.7667
▁end	-9.76717
▁teams	-9.76718
▁Trick	-9.7696
▁shoulder	-9.76984
ler	-9.7716
▁fighting	-9.77223
▁voll	-9.77304
▁asiatischen	-9.77412
bahn	-9.77489
go	-9.77512
ze	-9.77557
ew	-9.77596
▁beige	-9.77697
▁warm	-9.77979
bank	-9.78612
▁Kampfsport	-9.78665
▁country	-9.78666
▁Krawatte	-9.78671
▁schwingt	-9.78671
▁sprechen	-9.78671
▁weibliche	-9.78671
▁kaufen	-9.78671
▁chef	-9.78672
▁sunset	-9.78673
▁gegenüber	-9.78675
▁Badeanzug	-9.78676
▁nur	-9.787
▁Konzert	-9.78769
iant	-9.79001
▁afrikanische	-9.79065
▁sport	-9.79092
▁riesigen	-9.79122
▁runner	-9.79124
▁Erwachsener	-9.79287
▁chase	-9.79376
▁allein	-9.79624
▁Schuhen	-9.79716
▁Instrument	-9.79882
sten	-9.80023
bo	-9.80393
lu	-9.80509
less	-9.80647
ak	-9.8065
▁sc	-9.80667
▁Gegend	-9.80754
▁Laptop	-9.80754
▁barefoot	-9.80754
▁urban	-9.80754
▁waving	-9.80754
gerät	-9.80755
▁Sohn	-9.80755
▁Parkplatz	-9.80791
po	-9.80801
▁hin	-9.80802
▁Bu	-9.80826
▁shav	-9.80843
▁Handschuhen	-9.81053
▁waits	-9.81063
▁di	-9.81132
isch	-9.81211
▁Uniformen	-9.81304
tro	-9.81367
▁Erwachsenen	-9.81418
▁we	-9.81462
gt	-9.81777
tries	-9.82091
▁leg	-9.82557
▁Le	-9.82614
▁Ab	-9.82805
kostüm	-9.82882
▁Party	-9.82882
▁Straßenecke	-9.82882
▁leash	-9.82882
▁Schreibtisch	-9.82883
▁starrt	-9.82883
▁Straßenrand	-9.82888
▁Bereich	-9.8289
▁Stand	-9.82891
▁foot	-9.82896
▁Rand	-9.82897
▁marathon	-9.82929
▁Sa	-9.82976
▁Kinderwagen	-9.83014
▁Wa	-9.83112
▁start	-9.83173
▁pot	-9.83263
▁singen	-9.83306
▁ear	-9.83393
▁officer	-9.83696
▁fun	-9.83766
ich	-9.83907
▁alle	-9.84024
▁pinkfarbene	-9.84154
▁bald	-9.84218
tet	-9.84686
▁Snowboard	-9.84688
▁Bergen	-9.84813
cal	-9.84913
▁photograph	-9.85038
▁Schoß	-9.85056
▁course	-9.85056
▁umarmt	-9.85056
▁garden	-9.85056
▁Geländemotorrad	-9.85056
▁Pause	-9.85057
▁cloud	-9.85058
▁schlagen	-9.85058
▁Kanu	-9.85058
▁jagt	-9.85059
▁father	-9.85062
▁mix	-9.85063
▁Base	-9.85064
▁seen	-9.85077
▁golf	-9.85078
▁Badehose	-9.85082
▁Künstler	-9.85122
▁Koch	-9.85207
▁makes	-9.8541
ische	-9.85425
▁älteren	-9.85501
▁swim	-9.85556
▁says	-9.85561
▁blowing	-9.85864
▁bubbles	-9.85899
ure	-9.859
ade	-9.85976
▁pinkfarbenen	-9.8601
▁Sie	-9.86125
▁ange	-9.86286
▁blow	-9.86459
schen	-9.86499
▁bat	-9.86578
▁Skateboarder	-9.86597
▁sell	-9.86705
▁gelbes	-9.86854
▁Netz	-9.86925
▁females	-9.87112
liche	-9.87202
▁life	-9.87256
▁grasbewachsene	-9.87278
▁repariert	-9.87278
▁Kuchen	-9.87278
▁dunkelhaarige	-9.87278
▁happy	-9.87279
▁leather	-9.87279
▁meat	-9.87297
▁five	-9.87324
▁skating	-9.87366
▁klettern	-9.87366
uck	-9.87414
▁fast	-9.87445
▁heraus	-9.8747
▁photographer	-9.87615
▁outfits	-9.88043
▁Bau	-9.88119
▁way	-9.8826
▁Co	-9.88601
▁cloth	-9.88628
▁fallen	-9.88737
▁knee	-9.88755
▁Tänzer	-9.89117
▁drive	-9.89186
▁d	-9.89334
▁balloons	-9.89494
▁Spiegel	-9.89548
▁Müll	-9.8955
▁Construction	-9.89551
▁Schatten	-9.89551
▁Schüssel	-9.89551
▁Telefon	-9.89551
▁Vordergrund	-9.89551
▁foreground	-9.89551
▁gegnerische	-9.89551
▁microscope	-9.89551
▁Plastik	-9.89551
▁verkaufen	-9.89552
▁alone	-9.89555
▁ru	-9.89655
▁lead	-9.89658
▁Fahrradfahrer	-9.89663
ok	-9.89785
▁brightly	-9.89789
▁Jugendlicher	-9.89804
▁roller	-9.89843
▁Br	-9.90144
▁plate	-9.90165
▁deck	-9.90202
▁Es	-9.90386
▁musicians	-9.90473
▁helping	-9.90628
uff	-9.90757
▁kurze	-9.9078
art	-9.90783
side	-9.90809
▁sta	-9.9085
▁card	-9.90908
▁Schulter	-9.9097
rennen	-9.9101
sitz	-9.91242
do	-9.91263
▁weitere	-9.91307
▁performer	-9.91326
▁Gebäuden	-9.9137
ted	-9.91517
▁Bahn	-9.91576
gruppe	-9.91616
▁hang	-9.9174
▁log	-9.91779
▁signs	-9.91781
▁Clown	-9.91877
▁Schlitten	-9.91877
▁Schläger	-9.91877
▁Surfbrett	-9.91877
▁asleep	-9.91877
▁headphones	-9.91877
▁stunt	-9.91877
▁Kunden	-9.91877
▁sculpture	-9.91878
▁putzt	-9.91878
▁braunhaarige	-9.91879
▁gym	-9.91887
▁raft	-9.91887
▁gegeneinander	-9.91893
▁made	-9.91913
▁Fell	-9.91917
▁desert	-9.91933
▁Blau	-9.91954
len	-9.92001
▁Fa	-9.92145
▁goal	-9.92171
▁well	-9.92224
▁site	-9.92261
▁Ka	-9.92305
▁Cheerleader	-9.92562
hut	-9.92873
ue	-9.93224
▁lights	-9.93611
▁legs	-9.93723
▁Taschen	-9.93784
▁office	-9.93898
ian	-9.93953
▁mud	-9.94096
▁brush	-9.94142
▁Objekt	-9.94257
▁Mikroskop	-9.94257
▁Schnauze	-9.94257
▁stadium	-9.94257
▁video	-9.94257
▁Overall	-9.94258
▁diving	-9.94258
▁Sandalen	-9.94258
▁Küste	-9.94262
▁sandals	-9.94263
▁balanciert	-9.94266
▁doorway	-9.94269
▁jemandem	-9.94277
▁sled	-9.9429
▁musical	-9.94672
▁drawing	-9.94786
▁Geige	-9.9481
▁Fahrrädern	-9.94853
▁ring	-9.9502
▁umbrellas	-9.9508
C	-9.95293
▁speak	-9.95309
▁grau	-9.95417
ben	-9.95487
▁not	-9.95553
fahren	-9.9564
fall	-9.95686
▁ba	-9.95903
▁ob	-9.96103
▁fr	-9.96118
▁part	-9.96262
▁overlook	-9.96286
▁Fußballspiel	-9.96295
▁bemalt	-9.96328
lei	-9.96523
▁drum	-9.96603
▁project	-9.96669
markt	-9.96687
▁Marathon	-9.96694
▁Kaffee	-9.96696
▁Büro	-9.96696
▁Chinese	-9.96696
▁Klassenzimmer	-9.96696
▁Mobiltelefon	-9.96696
▁Schaufel	-9.96696
▁accordion	-9.96696
▁athlete	-9.96696
▁beugt	-9.96697
▁Kirche	-9.96697
▁Schiedsrichter	-9.96698
▁winkt	-9.967
hiking	-9.96702
▁stuff	-9.96707
▁setzt	-9.96712
▁Schlange	-9.96714
▁Licht	-9.96716
▁multicolored	-9.96726
▁Einkaufswagen	-9.96733
▁Flugzeug	-9.96751
▁Footballspieler	-9.96776
wand	-9.96808
▁anderes	-9.96836
▁Stiefeln	-9.96881
▁singer	-9.96906
▁Erde	-9.96927
▁ziehen	-9.96963
▁heads	-9.97219
▁string	-9.97222
▁Bein	-9.97239
gel	-9.973
▁falling	-9.97415
▁move	-9.97746
ies	-9.97836
▁Jacken	-9.97865
▁farbenfrohe	-9.98143
▁officers	-9.98624
ug	-9.98739
blauen	-9.98776
▁climb	-9.98815
▁teenage	-9.98838
▁decorat	-9.99196
▁Zimmer	-9.99196
▁church	-9.99196
▁dreht	-9.99196
▁fällt	-9.99196
▁includ	-9.99196
▁traffic	-9.99196
▁Fleisch	-9.99197
hi	-9.99198
▁booth	-9.99198
▁shallow	-9.99198
▁Felswand	-9.99198
▁Worker	-9.99199
▁Halsband	-9.99199
▁hellhäutige	-9.99203
▁performance	-9.99207
▁Katze	-9.99234
▁daughter	-9.99251
▁eat	-9.99271
dessen	-9.9929
haus	-9.99328
▁Pferden	-9.99683
▁h	-9.997
▁van	-9.99869
▁swings	-9.99941
▁sticks	-10.0023
her	-10.0025
▁Bilder	-10.0035
Spiel	-10.0046
led	-10.0077
▁plants	-10.0077
▁skiing	-10.0085
ah	-10.0092
▁hohe	-10.0121
▁faces	-10.0134
▁Schuhe	-10.0147
▁me	-10.0157
▁khaki	-10.0163
▁Freunde	-10.0167
tasche	-10.017
▁Fußgänger	-10.0176
▁Gerüst	-10.0176
▁Höhe	-10.0176
▁Karate	-10.0176
▁fünf	-10.0176
▁küssen	-10.0176
▁observe	-10.0176
▁below	-10.0176
▁zeigen	-10.0176
▁reiten	-10.0176
▁digging	-10.0176
▁protect	-10.0176
▁davor	-10.0177
▁BM	-10.0179
▁pond	-10.018
zug	-10.0182
▁bis	-10.0183
▁pal	-10.0196
▁hammer	-10.0197
stück	-10.0209
▁hellbrauner	-10.0211
▁Tasse	-10.0225
▁Ver	-10.0227
grünen	-10.0231
ble	-10.0233
tag	-10.0238
▁hose	-10.024
king	-10.0244
▁kn	-10.0278
▁ei	-10.0284
▁friend	-10.029
▁surf	-10.0303
lf	-10.0395
our	-10.0406
ausrüstung	-10.0409
ond	-10.042
▁tables	-10.0435
jacke	-10.0435
▁Verkehr	-10.0439
▁Kreis	-10.0439
▁Orange	-10.0439
▁Seifenblasen	-10.0439
▁aussieht	-10.0439
▁küsst	-10.0439
▁schmutzige	-10.0439
▁Tanktop	-10.0439
▁hugging	-10.0439
▁erwachsene	-10.044
▁inspect	-10.044
▁hoodie	-10.0441
▁pier	-10.0442
▁Loch	-10.0443
▁Hockey	-10.0446
▁nose	-10.0448
▁Kai	-10.0449
▁fan	-10.0451
▁dass	-10.0452
▁upside	-10.0452
▁tunnel	-10.0454
▁passes	-10.0472
▁relaxing	-10.0491
▁chinesische	-10.0493
▁slope	-10.0494
reich	-10.0502
▁indische	-10.0507
▁ho	-10.051
▁toys	-10.0529
▁shoe	-10.0544
▁redet	-10.0556
▁Bo	-10.0569
ker	-10.0587
▁Akkordeon	-10.0591
om	-10.0593
hand	-10.0621
cker	-10.064
▁So	-10.0643
▁seem	-10.0655
gebäude	-10.0692
feld	-10.0701
▁hellbraune	-10.0707
maschine	-10.0709
▁Christmas	-10.0709
▁Spaß	-10.0709
▁Ecke	-10.071
▁geparkt	-10.071
▁brunette	-10.071
▁Maske	-10.071
▁Black	-10.071
▁flies	-10.071
▁la	-10.0711
▁Spielfeld	-10.0711
▁Dog	-10.0712
▁pour	-10.0713
▁dry	-10.0715
war	-10.0716
▁Pflanzen	-10.0734
▁sweeping	-10.0745
▁sleeps	-10.0745
▁Reifen	-10.0753
vi	-10.0759
▁ex	-10.0764
▁dancers	-10.0839
▁No	-10.0853
O	-10.0864
▁Bäume	-10.0895
▁pro	-10.0898
G	-10.0905
▁kiss	-10.0906
▁fight	-10.0907
▁ha	-10.0924
▁cane	-10.0935
▁mov	-10.0945
▁cow	-10.095
froamerikanische	-10.0987
▁Lastwagen	-10.0987
▁Stadion	-10.0987
▁Teppich	-10.0987
▁Tochter	-10.0987
▁conversing	-10.0987
▁device	-10.0987
▁stream	-10.0987
▁swimsuit	-10.0987
▁telescope	-10.0987
▁Mountainbike	-10.0987
▁print	-10.0987
▁Guy	-10.0987
▁Schlamm	-10.0987
▁neck	-10.0987
▁Rennstrecke	-10.0987
▁Teich	-10.0987
▁cafe	-10.0987
▁Schwimmbrille	-10.0987
▁Teller	-10.0987
▁Skater	-10.0987
▁teeth	-10.0988
▁Wüste	-10.0988
▁Stoff	-10.0988
fuß	-10.0988
▁lone	-10.0988
▁Handtasche	-10.0994
▁mid	-10.1
▁Oberteilen	-10.1008
▁loca	-10.1013
▁round	-10.1024
▁trunks	-10.1052
▁resting	-10.1062
and	-10.1065
▁schönen	-10.1078
▁plant	-10.1096
▁Schultern	-10.1099
▁fall	-10.1108
gelben	-10.1119
▁Po	-10.1129
erin	-10.1142
▁bend	-10.1148
▁Flasche	-10.1179
▁beleuchtete	-10.1179
▁schöne	-10.118
band	-10.119
▁Tischen	-10.1201
▁rechte	-10.122
▁Caf	-10.1223
▁linke	-10.1262
▁Winter	-10.127
▁Unter	-10.1273
▁Hula	-10.1273
▁karate	-10.1273
▁kocht	-10.1273
▁wrestling	-10.1273
▁Haufen	-10.1273
▁jogging	-10.1273
▁Kappe	-10.1273
▁frame	-10.1273
schild	-10.1273
▁kind	-10.1273
▁gepflasterten	-10.1273
ac	-10.1273
▁infant	-10.1273
▁racket	-10.1274
▁square	-10.1274
▁underneath	-10.1274
▁cold	-10.1274
▁mural	-10.1274
▁stack	-10.1276
▁town	-10.1277
▁camp	-10.1277
▁how	-10.1278
line	-10.1286
▁held	-10.1287
▁fair	-10.1287
▁splashing	-10.1292
▁formal	-10.1292
W	-10.1299
▁balanc	-10.1316
▁name	-10.1332
▁Lad	-10.1363
▁points	-10.1371
▁Tier	-10.1371
▁guard	-10.1387
▁schwimmen	-10.1391
team	-10.1395
▁type	-10.1403
▁males	-10.1428
▁gun	-10.1475
I	-10.1481
mann	-10.15
roten	-10.1502
tier	-10.1503
▁pin	-10.1522
▁balance	-10.1522
▁stroll	-10.1533
▁vi	-10.1538
acht	-10.1547
▁bu	-10.1553
hang	-10.1562
straße	-10.1563
▁land	-10.1563
stuhl	-10.1566
▁gymnast	-10.1567
▁Balkon	-10.1567
▁Klippe	-10.1567
▁Landschaft	-10.1567
▁Zähne	-10.1567
▁entspannt	-10.1567
▁magazine	-10.1567
▁themselves	-10.1567
Hoop	-10.1567
▁felsige	-10.1567
▁hula	-10.1567
▁umarmen	-10.1567
▁neon	-10.1567
▁unterwegs	-10.1567
▁schaukelt	-10.1567
▁hängen	-10.1567
▁Small	-10.1567
▁Nase	-10.1567
▁Couch	-10.1568
▁lab	-10.1569
▁curly	-10.1569
▁straw	-10.157
▁live	-10.1571
▁Parkbank	-10.1572
▁asiatisch	-10.1574
▁tief	-10.1577
▁finish	-10.1581
▁nap	-10.1605
▁hu	-10.1617
▁Farben	-10.1634
▁hellen	-10.1642
▁eye	-10.1683
▁image	-10.1689
▁gate	-10.1696
▁cyclist	-10.17
▁Freunden	-10.1703
▁Schwimmer	-10.1704
▁post	-10.1713
▁wunderschöne	-10.1714
▁hiker	-10.1716
▁pan	-10.1787
schwarzer	-10.1795
bung	-10.1799
hen	-10.1807
bau	-10.1816
▁shoulders	-10.1817
ard	-10.1828
ift	-10.1831
ake	-10.1866
▁present	-10.1869
fahrzeug	-10.187
▁Blatt	-10.187
▁Gasse	-10.187
▁Gegenstände	-10.187
▁Trampolin	-10.187
▁circle	-10.187
▁crosswalk	-10.187
▁dinner	-10.187
▁heavy	-10.187
▁picnic	-10.187
▁produce	-10.187
▁trampoline	-10.187
▁wetsuit	-10.187
▁ärmellose	-10.187
▁clear	-10.187
▁nice	-10.187
▁carnival	-10.187
▁design	-10.187
▁damit	-10.187
▁bedient	-10.1871
▁deep	-10.1871
▁button	-10.1871
werk	-10.1871
▁Reiter	-10.1871
▁crying	-10.1871
▁Sachen	-10.1872
▁makeup	-10.1872
▁Hang	-10.1873
▁chain	-10.1875
▁Feldweg	-10.1877
▁sheet	-10.1881
▁dunkler	-10.189
▁Touristen	-10.1893
▁Sitzen	-10.1897
H	-10.1912
▁see	-10.1912
▁ma	-10.1915
bent	-10.1917
▁Steine	-10.1917
ated	-10.1924
▁wooded	-10.1925
▁Schutzhelmen	-10.1929
▁links	-10.1949
off	-10.1952
▁violetten	-10.1955
▁ro	-10.1956
▁shin	-10.1964
▁schlafen	-10.1975
▁individuals	-10.1978
▁Aus	-10.1989
▁wire	-10.1989
▁sea	-10.1997
land	-10.1998
stein	-10.2012
▁rest	-10.2021
▁seat	-10.2026
▁Pe	-10.2045
▁Flaggen	-10.2057
ical	-10.2059
▁Schuh	-10.2069
▁Kopfhörer	-10.2089
▁wander	-10.2092
▁Helmen	-10.2098
▁pack	-10.2115
▁coats	-10.2139
no	-10.2142
anz	-10.2145
▁ra	-10.2146
▁Gr	-10.2146
▁streets	-10.2151
▁Berge	-10.2168
ace	-10.2175
korb	-10.2181
veranstaltung	-10.2183
▁Springbrunnen	-10.2183
▁Wäsche	-10.2183
▁gezogen	-10.2183
▁hüpft	-10.2183
▁jongliert	-10.2183
▁practice	-10.2183
▁professional	-10.2183
▁trash	-10.2183
▁travel	-10.2183
▁wheelchair	-10.2183
▁überfüllte	-10.2183
▁load	-10.2183
▁wurde	-10.2183
▁center	-10.2183
▁sewing	-10.2183
▁Bullen	-10.2183
▁surface	-10.2183
boden	-10.2184
▁verwendet	-10.2184
▁hinab	-10.2184
▁Laub	-10.2186
▁Strecke	-10.2187
▁Skiern	-10.219
▁steigt	-10.2198
▁holt	-10.2201
▁Schul	-10.2201
▁closed	-10.2208
▁pitcher	-10.2217
▁grind	-10.222
▁Fahnen	-10.2229
▁driver	-10.2233
▁covering	-10.2237
▁wrapp	-10.2247
▁opening	-10.225
▁members	-10.2267
▁bra	-10.2269
ent	-10.2299
Shirts	-10.2299
itz	-10.234
▁Schwimm	-10.2343
ierte	-10.2353
▁hoop	-10.2355
rk	-10.2361
ary	-10.2366
gehen	-10.2378
ller	-10.2383
D	-10.2418
skinn	-10.246
que	-10.2464
▁Jugendliche	-10.2469
▁taken	-10.2496
park	-10.2497
▁Mahlzeit	-10.2505
▁Veranda	-10.2505
▁balcony	-10.2505
▁beverage	-10.2505
▁blouse	-10.2505
▁bottom	-10.2505
▁himself	-10.2505
▁lunch	-10.2505
▁schießt	-10.2505
▁schüttelt	-10.2505
▁softball	-10.2505
▁Umzug	-10.2505
▁schnell	-10.2505
▁third	-10.2505
▁crouche	-10.2505
▁rasiert	-10.2505
▁speed	-10.2505
mantel	-10.2506
▁kauft	-10.2506
▁sale	-10.2506
▁rechts	-10.2506
▁duck	-10.2507
▁peer	-10.2508
▁po	-10.2535
▁tricks	-10.2542
▁poster	-10.2551
▁Teil	-10.2576
▁sh	-10.2594
lichen	-10.2608
des	-10.2617
▁Ch	-10.2641
▁shak	-10.2656
▁indoor	-10.2668
▁robe	-10.2727
▁cook	-10.2739
▁Finger	-10.2745
▁violette	-10.275
ien	-10.2753
light	-10.2761
▁Asiate	-10.2763
voll	-10.2775
▁Rück	-10.2801
▁Zeit	-10.283
anie	-10.2831
▁London	-10.2839
▁advertisement	-10.2839
▁berührt	-10.2839
▁bläst	-10.2839
▁fotografieren	-10.2839
▁geschlossene	-10.2839
▁komplett	-10.2839
▁reparieren	-10.2839
▁staircase	-10.2839
fahrt	-10.2839
▁Bücher	-10.2839
▁Geschenk	-10.2839
▁Wurf	-10.2839
▁Anzügen	-10.2839
▁Lkw	-10.2839
▁ruht	-10.2839
▁most	-10.2839
taucht	-10.2839
▁steep	-10.2839
▁verfolgt	-10.2839
▁Cowboyhut	-10.2839
arrow	-10.2839
▁Kopftuch	-10.284
▁Sportler	-10.2841
▁bekommt	-10.2841
eign	-10.2841
▁swimmer	-10.2841
▁Blond	-10.2842
▁heben	-10.2843
▁dritte	-10.2846
▁tile	-10.2848
▁dances	-10.2849
▁festival	-10.2852
▁waterfall	-10.2856
▁Personengruppe	-10.2858
▁hellblauen	-10.2863
▁We	-10.2864
▁boxes	-10.2866
hund	-10.2867
▁Getränke	-10.2867
▁grillt	-10.2893
eht	-10.2915
▁Wein	-10.2927
▁ta	-10.2936
unk	-10.2939
alter	-10.2976
tzt	-10.2977
▁Instrumenten	-10.299
▁repair	-10.3011
▁Di	-10.3011
▁Sieb	-10.3026
par	-10.3057
roll	-10.3089
▁gra	-10.3096
N	-10.3101
last	-10.3115
▁Roll	-10.3138
▁war	-10.314
▁jemand	-10.3143
▁pitch	-10.3164
▁Instrumente	-10.3174
▁shar	-10.3179
▁garb	-10.3182
▁grocery	-10.3183
▁keyboard	-10.3183
▁puddle	-10.3183
▁saxophone	-10.3183
▁fresh	-10.3183
▁hockt	-10.3183
▁reinigt	-10.3183
▁motorcyclist	-10.3183
▁towel	-10.3184
▁podium	-10.3184
bereich	-10.3185
▁geschäftige	-10.3185
▁Wettkampf	-10.3191
▁wind	-10.3193
▁overalls	-10.3194
▁paddle	-10.3196
▁racer	-10.3199
▁schaufel	-10.32
▁paved	-10.3206
▁Er	-10.3208
mütze	-10.3244
▁Tennisspieler	-10.3256
▁brünette	-10.3257
▁r	-10.3259
one	-10.3262
halten	-10.3266
▁shape	-10.3268
▁Li	-10.3274
▁per	-10.3278
▁tri	-10.328
▁Beinen	-10.3285
▁Bade	-10.3292
▁skis	-10.3298
▁cha	-10.3332
▁Schw	-10.3359
rampe	-10.3367
▁tub	-10.337
▁jean	-10.3373
▁Im	-10.3375
laufen	-10.3407
geht	-10.3408
▁Renn	-10.3437
▁swims	-10.3453
covered	-10.3456
▁Do	-10.3461
▁Ring	-10.3466
▁cra	-10.3468
▁Sänger	-10.3492
▁Hochzeit	-10.3494
▁bow	-10.3503
bild	-10.3505
▁catche	-10.3514
ite	-10.3524
▁Gelände	-10.3529
▁dancer	-10.353
▁Str	-10.3537
▁Schlag	-10.354
schaukel	-10.354
▁Gebiet	-10.3541
▁Hindernis	-10.3541
▁Projekt	-10.3541
▁gentlemen	-10.3541
▁hurdle	-10.3541
▁laundry	-10.3541
▁mound	-10.3541
▁pipe	-10.3541
▁öffnet	-10.3541
▁curb	-10.3541
▁gefüllt	-10.3541
▁gucken	-10.3541
▁schreit	-10.3541
▁porch	-10.3541
▁stool	-10.3541
▁tongue	-10.3541
▁ledge	-10.3541
▁Salto	-10.3541
▁Zunge	-10.3541
▁bauen	-10.3541
▁Matte	-10.3541
▁Ort	-10.3541
▁figure	-10.3542
▁airplane	-10.3542
▁Asiatin	-10.3542
▁Bach	-10.3543
▁flight	-10.3544
▁vorbeigehen	-10.3546
▁Here	-10.3546
▁dust	-10.3551
▁umher	-10.3555
▁Wasserfall	-10.3557
▁position	-10.3558
▁einsame	-10.356
▁cla	-10.3563
ungen	-10.3568
▁traditioneller	-10.3569
rot	-10.3583
▁marching	-10.3584
▁wine	-10.3585
▁Hauses	-10.3585
ischer	-10.3587
▁wad	-10.3592
▁begin	-10.3593
▁weit	-10.361
▁climber	-10.3611
▁lachend	-10.3618
▁customers	-10.3619
▁fingers	-10.3644
ries	-10.3645
▁stark	-10.365
▁Asiaten	-10.3656
▁laugh	-10.3658
▁Kerl	-10.3674
zeug	-10.3682
hose	-10.3684
ges	-10.3698
▁teenagers	-10.3707
▁bit	-10.3709
▁tube	-10.3722
▁robes	-10.3726
sehen	-10.3733
▁hikers	-10.3744
▁cr	-10.3745
▁examin	-10.3754
stellen	-10.377
helm	-10.3778
▁nachde	-10.3787
▁teenager	-10.3795
form	-10.3807
▁snowboard	-10.3812
▁Blätter	-10.3817
▁Fahrräder	-10.3818
ally	-10.3828
vor	-10.3829
▁draw	-10.3833
schwarzen	-10.3845
▁Hi	-10.3846
▁oriental	-10.3847
com	-10.3858
▁Lauf	-10.3874
▁Ohr	-10.3876
▁birds	-10.3878
▁grab	-10.3878
▁bo	-10.3891
▁Groß	-10.3891
ial	-10.3902
kleid	-10.3908
▁Schlauch	-10.3911
▁Hals	-10.3911
▁Geld	-10.3911
▁Gepäck	-10.3911
▁Kurve	-10.3911
▁aufblasbare	-10.3911
▁piano	-10.3911
▁schneiden	-10.3911
▁untersucht	-10.3911
▁wäscht	-10.3911
▁Gewehr	-10.3911
▁befestigt	-10.3911
▁groom	-10.3911
▁backyard	-10.3911
▁einzelne	-10.3911
▁Becher	-10.3911
▁modern	-10.3911
▁kann	-10.3911
▁wild	-10.3911
▁pair	-10.3911
▁Lederjacke	-10.3911
▁paddling	-10.3911
▁Straßenkünstler	-10.3911
▁serve	-10.3911
▁Gold	-10.3912
▁polo	-10.3913
▁Winterkleidung	-10.3913
schlag	-10.3915
▁attached	-10.3915
▁frisch	-10.3917
▁Abend	-10.3922
▁arena	-10.3923
arbeit	-10.3924
▁Hockeyspieler	-10.3925
hemd	-10.3926
▁Tunnel	-10.3926
ollege	-10.3934
▁belt	-10.3939
▁evening	-10.3941
ral	-10.3954
▁ship	-10.3956
▁sleeve	-10.3958
▁steigen	-10.3965
▁lies	-10.3972
▁shooting	-10.3988
▁stra	-10.401
lä	-10.4039
▁colors	-10.4046
rzt	-10.4047
▁Feuerwehr	-10.4063
▁Fallschirm	-10.4076
▁Ko	-10.4087
▁books	-10.41
▁shade	-10.4128
▁einge	-10.4146
▁flor	-10.4153
▁Steinen	-10.4158
▁Freund	-10.4164
eiter	-10.4167
cy	-10.4175
▁verkleidet	-10.418
ance	-10.4208
Fahrer	-10.4209
▁Ballon	-10.4228
▁str	-10.4235
▁Teams	-10.4246
▁Ra	-10.4252
▁fold	-10.4276
▁kicks	-10.4288
stellung	-10.4292
▁Child	-10.4295
▁Verkauf	-10.4295
▁Baumstamm	-10.4295
▁Jockey	-10.4295
▁Kissen	-10.4295
▁Passanten	-10.4295
▁Terrasse	-10.4295
▁Werkzeug	-10.4295
▁Zeitschrift	-10.4295
▁bandanna	-10.4295
▁camouflage	-10.4295
▁darunter	-10.4295
▁fabric	-10.4295
▁gießt	-10.4295
▁luggage	-10.4295
▁pavement	-10.4295
▁record	-10.4295
▁übt	-10.4295
▁entfernt	-10.4296
▁jumpsuit	-10.4296
▁opponent	-10.4296
▁pillow	-10.4296
▁Kuh	-10.4296
▁inflatable	-10.4296
▁Jahrmarkt	-10.4296
▁sword	-10.4296
▁Tarn	-10.4296
▁will	-10.4299
▁doll	-10.43
▁heart	-10.4301
able	-10.4303
weise	-10.4303
▁Ausrüstung	-10.4311
ful	-10.4312
▁plane	-10.4318
▁blocks	-10.4322
▁beieinander	-10.4326
▁Tuch	-10.4329
▁you	-10.4332
▁feed	-10.4358
▁gelegt	-10.4365
▁Meeres	-10.4367
▁denim	-10.4375
▁kickt	-10.4394
▁fenced	-10.4399
▁offen	-10.4401
▁Eingang	-10.4402
lar	-10.4403
▁Fr	-10.441
▁lots	-10.443
▁cones	-10.4434
▁tracks	-10.4439
▁glücklich	-10.4452
▁Hunden	-10.4468
brauner	-10.4471
▁Vi	-10.4478
gu	-10.449
let	-10.4511
▁du	-10.458
▁shoot	-10.4613
▁Male	-10.4614
like	-10.4614
▁abge	-10.4639
▁balls	-10.4652
▁poles	-10.4653
chu	-10.4665
▁low	-10.4673
▁fill	-10.4679
▁discuss	-10.4694
▁mark	-10.4694
▁direct	-10.4695
▁Kunst	-10.4695
▁Polizei	-10.4695
▁Bräutigam	-10.4695
▁Geschirr	-10.4695
▁Teleskop	-10.4695
▁barfüßige	-10.4695
▁compete	-10.4695
▁courtyard	-10.4695
▁escalator	-10.4695
▁juggling	-10.4695
▁landscape	-10.4695
▁married	-10.4695
▁railroad	-10.4695
▁referee	-10.4695
▁shadow	-10.4695
▁tractor	-10.4695
▁unterschiedlich	-10.4695
▁vollführt	-10.4695
▁Santa	-10.4696
▁Kegel	-10.4696
▁Street	-10.4696
▁hölzerne	-10.4696
▁model	-10.4696
▁Brust	-10.4696
▁receiv	-10.4696
haufen	-10.4696
▁üben	-10.4696
▁helfen	-10.4696
▁Baseballkappe	-10.4696
▁geworfen	-10.4696
▁Rollstuhl	-10.4696
▁chest	-10.4696
▁City	-10.4697
▁hinaus	-10.4697
▁goalie	-10.4699
▁lane	-10.4699
▁beam	-10.4702
▁hinterher	-10.4704
▁amuse	-10.4704
▁aco	-10.4709
▁bringt	-10.4714
atz	-10.4719
▁kommen	-10.473
▁sail	-10.4736
▁windows	-10.4736
▁Schaufenster	-10.4742
▁waters	-10.4745
▁buying	-10.4759
ex	-10.4763
▁nassen	-10.4772
▁na	-10.4777
▁bl	-10.4791
▁Fahrer	-10.4798
▁bunt	-10.4809
▁Japane	-10.4825
car	-10.483
lauf	-10.4835
eiß	-10.4874
artige	-10.4876
▁Spitze	-10.488
▁laughs	-10.4884
▁gesäumte	-10.4885
▁pushe	-10.4886
merican	-10.4899
▁sca	-10.4917
▁neue	-10.4929
▁soldier	-10.4943
▁musician	-10.4946
▁Spielen	-10.4952
▁eats	-10.4969
▁Kon	-10.4971
▁Sees	-10.4981
▁Seve	-10.4983
kun	-10.4998
sion	-10.5007
▁riesige	-10.502
▁protest	-10.5026
▁relax	-10.503
▁Gerät	-10.5074
▁Fotograf	-10.5074
jo	-10.5077
▁Sitz	-10.5081
ustic	-10.5091
licht	-10.5106
▁suspende	-10.5112
anzügen	-10.5112
▁Ziel	-10.5112
stühlen	-10.5112
▁Drachen	-10.5112
▁Kapuzenpulli	-10.5112
▁Karren	-10.5112
▁Keyboard	-10.5112
▁Schäferhund	-10.5112
▁White	-10.5112
▁benutzen	-10.5112
▁bread	-10.5112
▁carriage	-10.5112
▁club	-10.5112
▁entertain	-10.5112
▁gezeigt	-10.5112
▁gleitet	-10.5112
▁happily	-10.5112
▁konzentriert	-10.5112
▁marketplace	-10.5112
▁überprüf	-10.5112
▁Schiff	-10.5112
▁banner	-10.5112
▁casual	-10.5112
▁Koffer	-10.5112
▁peace	-10.5112
▁Neoprenanzug	-10.5112
▁Brett	-10.5112
▁carpet	-10.5112
▁Jungs	-10.5112
▁bewegt	-10.5112
▁Rolltreppe	-10.5112
▁Turnhalle	-10.5112
▁heiße	-10.5112
▁socks	-10.5112
▁feiern	-10.5112
▁paddelt	-10.5112
▁mustache	-10.5113
▁Waldgebiet	-10.5113
▁attend	-10.5113
▁garbage	-10.5114
▁Seiten	-10.5114
▁adjust	-10.5114
▁dune	-10.5114
▁Besen	-10.5115
▁rollerskat	-10.5118
▁Plakat	-10.5121
▁tight	-10.5123
▁pajamas	-10.5123
▁order	-10.5128
▁fertig	-10.5131
▁angelt	-10.5131
▁Ziegel	-10.5135
▁bucking	-10.5142
ress	-10.5143
lit	-10.5144
▁diver	-10.5144
▁backwards	-10.5145
tür	-10.5148
▁farbige	-10.5151
▁scaffolding	-10.5153
▁geben	-10.5155
▁Brot	-10.5158
▁ringen	-10.5179
pri	-10.5183
▁cheering	-10.5185
▁touching	-10.5192
▁map	-10.5223
ord	-10.5228
▁goods	-10.5248
▁skirts	-10.5257
▁tools	-10.5257
▁Theke	-10.5262
▁step	-10.5275
▁soldiers	-10.5285
▁durchs	-10.5287
▁stehende	-10.5308
▁Lo	-10.5311
▁Bl	-10.5331
trick	-10.5331
ator	-10.5336
tered	-10.537
▁direction	-10.5377
▁bubble	-10.5379
▁pl	-10.5397
▁Dr	-10.5414
▁Mi	-10.5419
▁moves	-10.542
Skateboardfahrer	-10.5425
▁Ru	-10.5436
▁come	-10.5437
old	-10.5442
▁Trommel	-10.5452
U	-10.5462
▁ja	-10.5476
▁pre	-10.5501
mannschaft	-10.5508
▁toss	-10.5516
weight	-10.5538
▁fly	-10.5544
änner	-10.5545
halle	-10.5546
kampf	-10.5547
▁Militär	-10.5547
anlage	-10.5547
skulptur	-10.5547
▁Gegner	-10.5547
▁Gemälde	-10.5547
▁Hürde	-10.5547
▁John	-10.5547
▁Protest	-10.5547
▁Saxophon	-10.5547
▁Stapel	-10.5547
▁Tennisschläger	-10.5547
▁Trägerhemd	-10.5547
▁Vögel	-10.5547
▁athletic	-10.5547
▁caught	-10.5547
▁frisbee	-10.5547
▁gelehnt	-10.5547
▁harness	-10.5547
▁involv	-10.5547
▁lehnen	-10.5547
▁living	-10.5547
▁obstacle	-10.5547
▁plaza	-10.5547
▁serving	-10.5547
▁underwater	-10.5547
▁wagon	-10.5547
▁McDonald	-10.5547
▁Weihnachtsbaum	-10.5547
▁airport	-10.5547
▁rugby	-10.5547
▁Flughafen	-10.5547
▁German	-10.5547
▁stove	-10.5547
▁Nahaufnahme	-10.5547
▁coach	-10.5547
▁barrel	-10.5547
▁snack	-10.5547
▁teammate	-10.5547
▁action	-10.5547
Puppe	-10.5547
▁sheep	-10.5547
▁broom	-10.5547
▁Mänteln	-10.5548
▁kehrt	-10.5548
▁Musikinstrument	-10.5548
▁Auftritt	-10.5548
▁Knie	-10.5548
▁six	-10.5549
▁dining	-10.5549
▁Gewand	-10.5549
▁Herd	-10.5549
▁Motocross	-10.5549
▁z	-10.555
▁free	-10.555
▁Handtuch	-10.555
seite	-10.555
▁doctor	-10.5552
ett	-10.5556
bekleidung	-10.5557
▁bro	-10.5557
sleeved	-10.5557
▁Stöcke	-10.556
▁Heu	-10.556
▁teacher	-10.5568
▁hay	-10.5569
▁Angel	-10.5571
▁welding	-10.5571
schau	-10.5573
▁wide	-10.5574
▁raised	-10.5575
ying	-10.5601
ggy	-10.5602
▁hübsche	-10.561
▁bear	-10.5615
▁jerseys	-10.5623
▁touch	-10.5624
▁farm	-10.5628
raum	-10.5635
▁frische	-10.5641
▁riders	-10.5654
▁ausgestreckte	-10.5655
▁motorcycles	-10.5696
stock	-10.5718
kl	-10.5735
fully	-10.5748
▁irgendeine	-10.575
lad	-10.577
▁dra	-10.5776
▁bekleidete	-10.5808
ple	-10.5825
▁participat	-10.5825
▁fans	-10.5837
▁student	-10.5855
▁Berges	-10.5869
▁orientalische	-10.5887
eil	-10.5892
rock	-10.5902
▁shown	-10.5908
show	-10.5917
▁hitt	-10.592
▁Farbe	-10.5924
▁animals	-10.5939
q	-10.5946
▁Hocke	-10.5951
▁Soldat	-10.5964
▁traditionelle	-10.5967
▁hood	-10.5979
▁Wei	-10.5984
fläche	-10.5984
work	-10.5994
ktion	-10.5994
▁Bowling	-10.6001
▁Zement	-10.6001
köpfige	-10.6001
▁Angelrute	-10.6001
▁Bildschirm	-10.6001
▁Fläche	-10.6001
▁Pfütze	-10.6001
▁Skulptur	-10.6001
▁Trompete	-10.6001
▁Zahl	-10.6001
▁gravel	-10.6001
▁gräbt	-10.6001
▁jockey	-10.6001
▁necklace	-10.6001
▁operating	-10.6001
▁polka	-10.6001
▁schießen	-10.6001
▁trumpet	-10.6001
▁Rollerblades	-10.6002
▁Stirn	-10.6002
▁haircut	-10.6002
▁native	-10.6002
▁Labor	-10.6002
▁Lehrer	-10.6002
▁Wohnzimmer	-10.6002
▁Schutzbrille	-10.6002
▁sink	-10.6002
▁Gelb	-10.6002
▁Weihnachtsmann	-10.6002
▁storefront	-10.6003
▁jagen	-10.6003
▁Schwert	-10.6003
▁steinige	-10.6003
▁drummer	-10.6003
▁Gang	-10.6005
▁Wandbild	-10.6005
▁mom	-10.6005
▁Fans	-10.6005
▁Leder	-10.6006
▁Pier	-10.6009
▁Bauch	-10.601
▁trainiert	-10.6011
▁sechs	-10.6012
gebaut	-10.6012
ummer	-10.6013
▁Treppen	-10.6015
▁Werbung	-10.602
▁Handstand	-10.6021
▁hooded	-10.6021
▁hall	-10.6023
▁khakifarbene	-10.6026
▁Studenten	-10.6028
▁Dinge	-10.6031
▁color	-10.6032
▁mudd	-10.6033
▁kalten	-10.6039
▁folgt	-10.604
▁zer	-10.6048
▁jemanden	-10.6052
▁lassen	-10.6067
▁spinn	-10.6077
▁Fischer	-10.6085
rand	-10.6088
elle	-10.609
spielzeug	-10.6093
▁barbecue	-10.6121
▁paints	-10.6127
llen	-10.6149
▁complete	-10.615
setzen	-10.6157
▁bare	-10.618
ierten	-10.6182
▁bin	-10.6191
▁angezogen	-10.6204
ette	-10.6219
glas	-10.6261
og	-10.6271
▁Ba	-10.6285
▁grilling	-10.6296
▁tackle	-10.6298
▁flipp	-10.6303
▁sw	-10.6306
▁halb	-10.6307
▁individual	-10.6309
▁cover	-10.6311
▁cone	-10.6315
vil	-10.6338
ump	-10.6339
▁raise	-10.6344
ped	-10.6357
▁engage	-10.637
▁runners	-10.6387
gelegt	-10.6392
tritt	-10.6393
down	-10.6393
▁cheer	-10.6396
▁Schutz	-10.6422
▁Zu	-10.6427
bus	-10.6435
▁Sicherheits	-10.6456
rest	-10.6458
▁sha	-10.6464
▁volle	-10.6464
▁pit	-10.6465
▁approach	-10.6466
hoe	-10.6471
sammelt	-10.6475
▁leav	-10.6475
▁reflect	-10.6476
hilfe	-10.6477
▁backpacks	-10.6477
▁Kampf	-10.6478
▁Kapuze	-10.6478
förmige	-10.6478
▁Behälter	-10.6478
▁Brown	-10.6478
▁Bushaltestelle	-10.6478
▁Daumen	-10.6478
▁Eltern	-10.6478
▁Figur	-10.6478
▁Gassi	-10.6478
▁Hütte	-10.6478
▁Klavier	-10.6478
▁Kletterer	-10.6478
▁Orchester	-10.6478
▁Ozean	-10.6478
▁Pfosten	-10.6478
▁Profi	-10.6478
▁Pärchen	-10.6478
▁Zuschauermenge	-10.6478
▁bathroom	-10.6478
▁control	-10.6478
▁geblümte	-10.6478
▁headscarf	-10.6478
▁jungle	-10.6478
▁kahlköpfiger	-10.6478
▁kochen	-10.6478
▁mobile	-10.6478
▁orchestra	-10.6478
▁ribbon	-10.6478
▁routine	-10.6478
▁sandwich	-10.6478
▁spread	-10.6478
▁thumb	-10.6478
▁daneben	-10.6478
▁garage	-10.6478
▁schwere	-10.6478
▁camel	-10.6478
▁saw	-10.6478
▁interact	-10.6478
▁candy	-10.6478
▁motorbike	-10.6478
▁text	-10.6478
▁checkered	-10.6478
rubber	-10.6478
▁Kamel	-10.6478
▁weint	-10.6478
▁things	-10.6478
▁hören	-10.6478
▁hallway	-10.6478
▁studio	-10.6478
▁streichelt	-10.6478
▁DJ	-10.6478
▁half	-10.6478
▁money	-10.6479
▁youth	-10.6479
▁heels	-10.6479
▁presentation	-10.6479
▁Feier	-10.6479
▁Fest	-10.6479
▁Videospiel	-10.648
▁kite	-10.648
▁Kette	-10.6481
▁baut	-10.6481
▁dicht	-10.6481
▁Stadtstraße	-10.6484
▁nähert	-10.6487
▁redhead	-10.6489
▁bringen	-10.649
▁sack	-10.649
▁runden	-10.6493
wasser	-10.6494
arge	-10.6495
▁Herz	-10.6498
▁Menschengruppe	-10.6501
buch	-10.6501
Backsteingebäude	-10.6502
selbe	-10.6503
▁Kran	-10.6504
▁guitarist	-10.6505
▁statt	-10.6507
▁Trainings	-10.6516
▁pedestrians	-10.6516
▁steilen	-10.6517
▁beigefarbene	-10.6519
▁Topf	-10.6523
▁rast	-10.6527
▁but	-10.6538
▁Stier	-10.654
▁Motor	-10.655
▁lächelndes	-10.6559
tle	-10.6562
▁Füßen	-10.6563
of	-10.6567
hosen	-10.6591
kel	-10.66
sam	-10.6603
▁hinein	-10.6609
▁stor	-10.6629
eep	-10.663
dach	-10.6632
▁rod	-10.6643
▁benches	-10.6648
▁Kunststücke	-10.6662
▁Car	-10.667
shirts	-10.6677
▁stehenden	-10.6692
▁sing	-10.6693
▁Ballons	-10.6693
decke	-10.6714
▁gehende	-10.6715
▁bestehende	-10.6718
▁point	-10.6726
fährt	-10.6729
ood	-10.674
pie	-10.6752
▁cyclists	-10.6754
stellt	-10.6759
ked	-10.6769
deck	-10.6801
ahl	-10.6802
lam	-10.6803
▁craft	-10.6809
▁thrown	-10.681
verkäufer	-10.6814
halt	-10.6832
▁Rede	-10.6839
▁photographs	-10.6859
▁vorüber	-10.6875
box	-10.6898
▁creat	-10.6901
dress	-10.6906
robe	-10.6919
▁Tourist	-10.694
▁Bike	-10.6941
▁dive	-10.6949
recht	-10.6955
▁film	-10.6956
▁handle	-10.6964
▁su	-10.6968
otocross	-10.6975
▁multi	-10.6976
▁Einkaufs	-10.6976
▁Taucher	-10.6977
▁Outdoor	-10.6978
▁Gummi	-10.6978
irthday	-10.6978
▁Bahnsteig	-10.6978
▁Dreadlocks	-10.6978
▁Hammer	-10.6978
▁Karton	-10.6978
▁Motorroller	-10.6978
▁Rennauto	-10.6978
▁Schnurrbart	-10.6978
▁Skatepark	-10.6978
▁Taxi	-10.6978
▁elephant	-10.6978
▁entrance	-10.6978
▁focus	-10.6978
▁patio	-10.6978
▁pattern	-10.6978
▁racetrack	-10.6978
▁speech	-10.6978
▁Kunststoff	-10.6978
▁mehrfarbige	-10.6978
▁ceiling	-10.6978
▁scheinen	-10.6978
▁Robe	-10.6978
▁Fliege	-10.6978
▁China	-10.6978
▁Socken	-10.6978
▁Einkaufszentrum	-10.6978
▁excited	-10.6978
▁crash	-10.6978
▁machinery	-10.6978
▁joggt	-10.6978
▁Picknicktisch	-10.6978
▁muzzle	-10.6978
▁Steinmauer	-10.6978
▁admir	-10.6978
▁Baseballmütze	-10.6979
▁leaf	-10.698
▁Inline	-10.6981
▁summer	-10.6982
▁puck	-10.6982
▁hid	-10.6983
▁policeman	-10.6983
cuba	-10.6983
▁mall	-10.6985
▁auszu	-10.6989
stapel	-10.6992
▁Speisen	-10.6999
▁batter	-10.7
▁dunkelblaue	-10.7002
▁container	-10.7004
▁sprinkler	-10.7004
▁Biker	-10.7014
▁tag	-10.7015
▁vehicles	-10.7023
▁zeichnet	-10.7024
▁spritzt	-10.7025
die	-10.7025
▁pett	-10.7034
▁Kisten	-10.7043
rench	-10.7046
▁Motorrädern	-10.7048
▁dicke	-10.7049
mittel	-10.7057
▁Cafe	-10.7067
▁snowboarding	-10.7092
▁tool	-10.7095
▁passengers	-10.7098
▁boats	-10.7104
▁verkleidete	-10.713
▁Kopfhörern	-10.7131
▁gaze	-10.7148
▁examine	-10.7195
▁rowing	-10.7205
▁pen	-10.7216
▁tip	-10.7225
▁read	-10.7239
ffel	-10.7247
▁Kunstwerk	-10.7248
inde	-10.7253
▁rests	-10.7262
od	-10.7296
▁Red	-10.7324
▁smoke	-10.7333
▁glove	-10.7336
▁good	-10.7339
▁abzu	-10.7357
▁ropes	-10.736
▁ears	-10.7382
ried	-10.7404
▁Sonnenbrillen	-10.7407
▁angel	-10.7409
▁Füße	-10.741
▁Blume	-10.7412
▁sets	-10.7416
Reifen	-10.7418
style	-10.7419
Schild	-10.7419
Gitarre	-10.7419
unte	-10.7429
▁buy	-10.7446
▁Gitarrist	-10.7465
▁Schule	-10.7476
assen	-10.7476
▁plac	-10.7479
▁Baseballspiel	-10.7488
▁mop	-10.749
kü	-10.749
llow	-10.7493
▁Grün	-10.7504
▁Anlegestelle	-10.7504
▁Crowd	-10.7504
▁Freiluft	-10.7504
▁Geldbörse	-10.7504
▁Körper	-10.7504
▁Nickerchen	-10.7504
▁Nähmaschine	-10.7504
▁Passagier	-10.7504
▁Sanddüne	-10.7504
▁Wasserski	-10.7504
▁african	-10.7504
▁boardwalk	-10.7504
▁donkey	-10.7504
▁dünne	-10.7504
▁electronic	-10.7504
▁feather	-10.7504
▁hospital	-10.7504
▁intersection	-10.7504
▁ländliche	-10.7504
▁museum	-10.7504
▁product	-10.7504
schließ	-10.7504
▁aqua	-10.7504
▁herself	-10.7504
▁rudert	-10.7504
▁ATV	-10.7504
▁Dorf	-10.7504
▁schwach	-10.7504
▁ornate	-10.7504
▁Hinterhof	-10.7504
▁barrier	-10.7504
▁beschäftigt	-10.7504
▁Straßenhändler	-10.7504
▁Bahnhof	-10.7504
▁Windhund	-10.7504
▁rough	-10.7504
▁drill	-10.7504
Skate	-10.7505
▁Bowlingbahn	-10.7505
▁Lampe	-10.7505
▁stopped	-10.7505
▁Rennwagen	-10.7505
▁possibly	-10.7505
▁horseback	-10.7505
▁keep	-10.7505
▁kahl	-10.7505
▁seichte	-10.7505
▁schwarzhaarige	-10.7506
▁Kreuzung	-10.7506
▁Stift	-10.7506
▁discussion	-10.7506
▁Traktor	-10.7506
▁Start	-10.7507
▁hillside	-10.7508
▁dire	-10.7509
▁vorbeifährt	-10.7509
▁Kies	-10.7509
▁headband	-10.7511
▁bushes	-10.7512
▁Bekleidung	-10.7513
ron	-10.7514
▁featur	-10.7516
▁surrounding	-10.7517
▁Wettbewerb	-10.7521
▁song	-10.7525
▁langhaariger	-10.7533
▁wrestler	-10.7537
▁Esel	-10.7537
▁sil	-10.7546
▁horn	-10.7559
▁Zeichen	-10.7563
▁lockige	-10.7564
▁fruits	-10.757
▁silbernen	-10.7573
▁cab	-10.7577
▁va	-10.7583
▁Schlagzeuger	-10.7583
ches	-10.7593
ence	-10.7601
▁dot	-10.7627
gg	-10.7644
▁tin	-10.7645
▁enter	-10.7646
▁Typen	-10.7646
▁splashe	-10.7649
▁Luftballons	-10.765
▁lin	-10.7651
▁apple	-10.7657
▁anzu	-10.7702
▁participate	-10.7713
▁Graffitis	-10.7748
▁ca	-10.7749
▁Getränken	-10.776
▁wor	-10.7784
▁Tee	-10.7824
arbeiter	-10.7831
▁tea	-10.7835
▁Ei	-10.7872
▁cleans	-10.788
utsch	-10.7895
ky	-10.7896
blaue	-10.7897
▁dunkle	-10.7933
▁geöffnete	-10.7951
▁Softball	-10.796
▁nah	-10.7961
treten	-10.7977
▁mus	-10.7979
▁Har	-10.7988
▁walls	-10.7993
▁cool	-10.7999
▁bikers	-10.8017
▁glä	-10.8018
▁baskets	-10.8023
▁streich	-10.8024
▁pet	-10.8035
▁Erd	-10.8037
kle	-10.8048
flasche	-10.8049
▁Waffe	-10.8054
▁Rugby	-10.8059
▁Außen	-10.8059
linie	-10.8059
▁Hinter	-10.8059
▁cobble	-10.806
Fußgängerüberweg	-10.806
▁Balken	-10.806
▁Bänken	-10.806
▁Club	-10.806
▁Flüssigkeit	-10.806
▁Gürtel	-10.806
▁Klettergerüst	-10.806
▁Olympic	-10.806
▁Rädern	-10.806
▁Sonnenschirm	-10.806
▁Verkäufer	-10.806
▁bearbeitet	-10.806
▁berühren	-10.806
▁celebrating	-10.806
▁eingezäunte	-10.806
▁exhibit	-10.806
▁fencing	-10.806
▁flauschige	-10.806
▁great	-10.806
▁können	-10.806
▁maroon	-10.806
▁marschiert	-10.806
▁neighborhood	-10.806
▁selbst	-10.806
▁silhouette	-10.806
▁taxi	-10.806
▁verheiratete	-10.806
▁village	-10.806
▁Dreck	-10.806
▁patient	-10.806
▁trockene	-10.806
▁interview	-10.806
▁wife	-10.806
▁Mittag	-10.806
▁Bowlingkugel	-10.806
▁puppy	-10.806
bewegung	-10.806
▁Schwimmweste	-10.806
▁Strohhut	-10.806
▁Teig	-10.806
▁Einkaufstasche	-10.806
▁East	-10.806
▁moment	-10.806
▁firetruck	-10.806
▁Moped	-10.806
▁tun	-10.806
▁USA	-10.806
▁squatting	-10.8061
Cola	-10.8061
▁Rauch	-10.8061
▁Halle	-10.8061
▁outstretched	-10.8061
▁nav	-10.8061
▁Wange	-10.8062
▁blondhaarige	-10.8062
▁Feder	-10.8062
▁Seife	-10.8063
▁still	-10.8063
▁Chor	-10.8064
born	-10.8066
▁knit	-10.8066
▁Puck	-10.8067
▁gehalten	-10.8068
▁dishes	-10.807
▁Arena	-10.8072
▁US	-10.8074
▁handstand	-10.8076
▁amüsieren	-10.808
▁runter	-10.8082
▁clay	-10.8082
▁Rucksäcken	-10.8084
▁Wänden	-10.8089
▁beladen	-10.809
▁Lied	-10.8092
▁los	-10.8099
▁Fotografen	-10.8111
▁anhat	-10.8111
▁tätowierte	-10.8138
▁leicht	-10.8141
▁farmer	-10.8151
rück	-10.8155
▁herab	-10.8155
itte	-10.8167
▁Regenschirmen	-10.8172
▁fur	-10.8183
▁Ton	-10.8193
▁vorne	-10.8194
lose	-10.8196
▁hugs	-10.8203
findet	-10.8213
partment	-10.8224
pfen	-10.8258
cent	-10.8267
▁medic	-10.8286
▁passende	-10.8305
▁ahead	-10.8319
▁indoors	-10.8354
ious	-10.8358
▁seats	-10.8376
rank	-10.8392
▁slides	-10.8392
▁Feuerwehrm	-10.8407
▁glückliche	-10.841
▁eng	-10.8413
pped	-10.842
▁pu	-10.8434
▁finger	-10.848
▁schlafende	-10.8493
▁seltsame	-10.8507
▁skateboards	-10.852
richten	-10.8526
ähnliche	-10.8529
▁Restaurants	-10.8532
▁item	-10.8539
▁Afroamerikaner	-10.8549
V	-10.8553
spielen	-10.8553
▁prob	-10.8555
über	-10.8556
uniform	-10.8563
steigen	-10.8568
wood	-10.8568
farbene	-10.8578
▁tee	-10.8579
farbe	-10.8608
Y	-10.861
▁wrestle	-10.8611
▁Volleyballspiel	-10.8621
▁wate	-10.8622
▁corn	-10.8626
▁dish	-10.864
figur	-10.8646
▁chalk	-10.8647
sprung	-10.8648
kreuz	-10.8648
▁Konferenz	-10.8648
bildschirm	-10.8648
blätter	-10.8648
ecurity	-10.8648
▁Bluejeans	-10.8648
▁Gespräch	-10.8648
▁Gewänder	-10.8648
▁Heißluftballon	-10.8648
▁Herbst	-10.8648
▁Hotel	-10.8648
▁Platte	-10.8648
▁Plattform	-10.8648
▁Sandstrand	-10.8648
▁Schlittschuh	-10.8648
▁Schubkarre	-10.8648
▁Show	-10.8648
▁Silhouette	-10.8648
▁Square	-10.8648
▁Surfboard	-10.8648
▁Tafel	-10.8648
▁begutachtet	-10.8648
▁choir	-10.8648
▁cricket	-10.8648
▁dreadlocks	-10.8648
▁füllt	-10.8648
▁gebeugt	-10.8648
▁gegenseitig	-10.8648
▁glatzköpfige	-10.8648
▁hotdog	-10.8648
▁nächste	-10.8648
▁richtet	-10.8648
▁schwenkt	-10.8648
▁steckt	-10.8648
▁suitcase	-10.8648
▁treffen	-10.8648
▁vacuum	-10.8648
▁crouching	-10.8648
▁own	-10.8648
▁rink	-10.8648
▁spoon	-10.8648
▁Becken	-10.8648
▁brennende	-10.8648
▁upward	-10.8648
▁first	-10.8648
▁ballerina	-10.8648
▁Schachtel	-10.8648
▁patch	-10.8648
▁sofa	-10.8648
▁dead	-10.8648
▁visit	-10.8648
▁regne	-10.8648
▁odd	-10.8648
▁scenery	-10.8648
▁carving	-10.8648
▁punch	-10.8648
▁Abendessen	-10.8648
drückt	-10.8648
▁Schwimmbad	-10.8648
▁Schlafanzug	-10.8648
flops	-10.8648
▁soda	-10.8648
▁calf	-10.8648
▁Hoch	-10.8649
▁knien	-10.8649
▁sucht	-10.8649
▁geschminkte	-10.8649
▁iron	-10.8649
▁cheerleaders	-10.865
läufer	-10.865
▁grand	-10.865
▁College	-10.8651
▁lamp	-10.8651
▁gift	-10.8651
▁hart	-10.8651
▁Noten	-10.8653
▁Fußballfeld	-10.8653
zeit	-10.8654
▁Pitcher	-10.8656
boot	-10.8657
▁stripes	-10.8658
▁Ente	-10.8658
▁size	-10.8659
▁kaut	-10.866
▁Texas	-10.8666
▁monitor	-10.8672
▁Tattoo	-10.8672
▁buckets	-10.8672
▁Kerzen	-10.8674
io	-10.8676
▁newly	-10.8676
▁stretching	-10.8678
▁circu	-10.868
eben	-10.8682
▁crew	-10.8689
▁flachen	-10.8708
▁stares	-10.8711
▁Outfits	-10.8714
▁amid	-10.8714
▁Karten	-10.8714
tzen	-10.8716
▁bottles	-10.8724
ruhen	-10.8733
▁fo	-10.8743
▁thin	-10.8755
▁coloring	-10.8755
▁motor	-10.8773
▁skates	-10.8805
▁gas	-10.8835
▁weiter	-10.884
▁smokes	-10.8844
gar	-10.8852
leicht	-10.8852
ön	-10.8853
▁crafts	-10.8854
▁tags	-10.8856
▁Turner	-10.8886
farbenen	-10.8891
▁Golf	-10.8905
lassen	-10.8927
waschen	-10.894
llt	-10.8944
well	-10.8981
▁Kleider	-10.8988
spritzen	-10.8988
▁Gewässers	-10.9008
gelb	-10.9017
▁boxing	-10.9019
▁bite	-10.9023
▁medi	-10.9047
▁Turnerin	-10.9049
zelt	-10.9086
▁Cheerleaders	-10.9087
▁apartment	-10.909
▁Luftballon	-10.9102
▁member	-10.9104
▁vegetable	-10.9105
▁Wette	-10.9125
▁spring	-10.9128
▁wrap	-10.9144
act	-10.9161
tlich	-10.9162
braunen	-10.917
statue	-10.9175
hält	-10.9178
▁Grimasse	-10.9178
▁Fahne	-10.918
block	-10.9187
Kostüm	-10.9187
Oberteil	-10.9188
Hemd	-10.9188
▁sweep	-10.9191
▁bik	-10.9192
▁link	-10.9212
▁tattoos	-10.9233
stone	-10.9243
hör	-10.9244
▁Box	-10.9244
▁Sängerin	-10.9258
▁branch	-10.9261
landschaft	-10.9271
odium	-10.9271
schminkt	-10.9271
▁Hafen	-10.9273
fenster	-10.9273
▁Brandung	-10.9273
▁Elmo	-10.9273
▁Friseur	-10.9273
▁Hilfe	-10.9273
▁Körbe	-10.9273
▁LKW	-10.9273
▁Löffel	-10.9273
▁Middle	-10.9273
▁Natur	-10.9273
▁Plastiktüte	-10.9273
▁altmodische	-10.9273
▁boulder	-10.9273
▁breite	-10.9273
▁cheek	-10.9273
▁chicken	-10.9273
▁column	-10.9273
▁conference	-10.9273
▁entgegen	-10.9273
▁entspannen	-10.9273
▁ethnic	-10.9273
▁furniture	-10.9273
▁greyhound	-10.9273
▁gymnasium	-10.9273
▁kopfüber	-10.9273
▁library	-10.9273
▁liquid	-10.9273
▁marschieren	-10.9273
▁material	-10.9273
▁parachute	-10.9273
▁partially	-10.9273
▁silberfarbene	-10.9273
▁similar	-10.9273
▁stairway	-10.9273
▁unicycle	-10.9273
▁Bewegung	-10.9273
▁Lächeln	-10.9273
▁collect	-10.9273
▁intently	-10.9273
▁schweißt	-10.9273
▁japanische	-10.9273
▁Kalb	-10.9273
▁untersuchen	-10.9273
▁Waschsalon	-10.9273
▁tray	-10.9273
schloss	-10.9273
wirbelt	-10.9273
▁Umhang	-10.9273
▁beißt	-10.9273
schieben	-10.9273
▁Linie	-10.9273
▁Wettrennen	-10.9273
▁jede	-10.9273
▁Röcken	-10.9273
▁dimly	-10.9273
▁Film	-10.9273
▁nighttime	-10.9273
▁Feuerwehrmann	-10.9274
▁Theater	-10.9274
▁comfort	-10.9274
▁Frisbeescheibe	-10.9274
▁Blumenmuster	-10.9275
▁Must	-10.9275
▁crane	-10.9275
▁derby	-10.9275
▁tower	-10.9275
▁space	-10.9276
▁castle	-10.9276
▁fegt	-10.9276
▁love	-10.9276
▁tend	-10.9276
▁Sportwagen	-10.9278
▁planscht	-10.9278
▁dazu	-10.9279
▁Grasfläche	-10.9279
▁calm	-10.928
▁bass	-10.9281
▁jet	-10.9281
▁Jeansjacke	-10.9281
▁Wasserflasche	-10.9285
▁barber	-10.9286
▁Messer	-10.9286
▁trainieren	-10.9286
▁füttert	-10.9287
▁Fahrt	-10.9287
▁win	-10.9289
▁noch	-10.929
▁spä	-10.9291
▁Kugel	-10.9293
▁Spielkleidung	-10.9293
▁parent	-10.9293
▁test	-10.9295
▁range	-10.9295
▁moped	-10.9297
muster	-10.9298
▁bewölkten	-10.93
▁Mitglieder	-10.9302
▁para	-10.9308
▁nasse	-10.9308
▁Palmen	-10.9313
▁Tauben	-10.9319
▁cast	-10.9322
▁bowls	-10.9326
▁pigeons	-10.9335
▁tied	-10.9335
▁following	-10.9347
▁rollt	-10.9351
▁ga	-10.9363
▁aufgestellt	-10.9371
▁pret	-10.9371
Eishockeyspieler	-10.9374
ity	-10.9378
▁candles	-10.938
▁farbenfroher	-10.938
▁cop	-10.9385
▁Deck	-10.9396
▁beat	-10.9401
▁style	-10.9403
▁listens	-10.9403
▁rais	-10.9414
▁soll	-10.9418
▁rug	-10.9419
tanz	-10.9429
▁lounge	-10.9429
▁Herren	-10.9438
▁trailer	-10.944
round	-10.9456
▁wandern	-10.9467
kart	-10.9471
erry	-10.9474
lift	-10.9481
▁verlassen	-10.9512
▁tackl	-10.9516
▁balding	-10.9523
▁Geschäften	-10.9525
▁fliegende	-10.957
gang	-10.9581
weste	-10.9598
ature	-10.9619
▁fröhliche	-10.9627
▁typ	-10.964
ox	-10.966
▁shake	-10.971
▁fliegen	-10.9711
cle	-10.9719
blau	-10.9731
▁got	-10.9747
▁Jack	-10.9765
▁loung	-10.9775
▁viewing	-10.9777
suche	-10.9821
▁Tricks	-10.9828
▁Eishockey	-10.9832
sleeve	-10.9837
▁parkt	-10.9839
▁hug	-10.9843
▁wheels	-10.9845
▁Motorräder	-10.9846
stehende	-10.9846
▁Stufe	-10.9847
bedeckte	-10.985
läuft	-10.9855
shorts	-10.9855
▁march	-10.9858
rlich	-10.986
bel	-10.9862
▁Cowboys	-10.9863
▁Sta	-10.9874
▁prop	-10.9889
more	-10.9891
iegen	-10.9897
▁Ziege	-10.99
▁Fels	-10.9902
▁langhaarige	-10.9903
▁contain	-10.9905
▁share	-10.9908
▁Girls	-10.991
hügel	-10.9936
neath	-10.9937
▁Schafe	-10.9937
▁cheerlead	-10.9937
gebiet	-10.9937
wendet	-10.9939
▁Weihnachts	-10.9939
▁Modell	-10.9939
wärts	-10.9939
▁Badewanne	-10.9939
▁Elefanten	-10.9939
▁Floß	-10.9939
▁Flöte	-10.9939
▁Hawaii	-10.9939
▁Händler	-10.9939
▁Klassenraum	-10.9939
▁Kreide	-10.9939
▁Kricket	-10.9939
▁Multip	-10.9939
▁Mülltonne	-10.9939
▁Produkte	-10.9939
▁Transport	-10.9939
▁Tribüne	-10.9939
▁Violine	-10.9939
▁advertising	-10.9939
▁ausgebreitet	-10.9939
▁billboard	-10.9939
▁bückt	-10.9939
▁celebrate	-10.9939
▁converse	-10.9939
▁dekoriert	-10.9939
▁diskutieren	-10.9939
▁jewelry	-10.9939
▁jubeln	-10.9939
▁nieder	-10.9939
▁näht	-10.9939
▁observing	-10.9939
▁rainbow	-10.9939
▁scheinbar	-10.9939
▁stomach	-10.9939
▁television	-10.9939
▁treibt	-10.9939
▁verlässt	-10.9939
▁weather	-10.9939
▁übergewichtige	-10.9939
▁Säugling	-10.9939
▁Walmart	-10.9939
▁juggle	-10.9939
▁operate	-10.9939
▁process	-10.9939
▁Köche	-10.9939
▁peek	-10.9939
▁wischt	-10.9939
▁Home	-10.9939
▁verdeckt	-10.9939
wurf	-10.9939
▁Ballerina	-10.9939
▁Bandana	-10.9939
▁Flur	-10.9939
▁forward	-10.994
▁return	-10.994
stimmt	-10.994
▁bundle	-10.994
▁treat	-10.994
▁reinigen	-10.994
▁Feuerwehrleute	-10.994
▁Sessel	-10.994
▁Piste	-10.994
▁learn	-10.994
▁Mittagessen	-10.994
▁Ziegelmauer	-10.994
▁Halskette	-10.994
▁chew	-10.994
▁Straßenmusik	-10.994
▁klare	-10.994
▁Fahrgeschäft	-10.994
▁Reifenschaukel	-10.994
kurs	-10.994
▁starren	-10.994
▁joggen	-10.994
▁Wind	-10.9941
▁festhält	-10.9941
▁Bogen	-10.9942
▁Nah	-10.9942
▁Torhüter	-10.9942
▁Maulkorb	-10.9943
▁Moment	-10.9943
▁Time	-10.9943
▁Polo	-10.9944
▁lick	-10.9944
▁spot	-10.9944
▁skill	-10.9945
▁exit	-10.9945
▁bekommen	-10.9946
▁befahrene	-10.9946
▁bewundert	-10.9946
▁bespritzt	-10.9947
hile	-10.9947
▁fireman	-10.9947
▁theater	-10.9947
▁Rohr	-10.9948
▁Waldweg	-10.9948
zahl	-10.9949
▁ausgestellt	-10.9951
Derby	-10.9952
▁Sportkleidung	-10.9952
▁called	-10.9956
handschuh	-10.9957
▁official	-10.996
▁pop	-10.9961
▁Poster	-10.9968
▁Fire	-10.9969
▁Büschen	-10.9969
träger	-10.997
▁flute	-10.9973
▁goat	-10.9974
▁Fecht	-10.9975
▁cape	-10.9978
▁Snowboardfahre	-10.998
▁press	-10.9983
▁engen	-10.9987
▁tape	-10.999
▁crosses	-10.9998
▁Beine	-10.9998
▁torch	-11.0001
▁ober	-11.0004
▁Laufen	-11.001
▁Ohren	-11.001
▁Welpen	-11.0015
▁strip	-11.0028
▁teach	-11.0034
▁Schildern	-11.0043
▁pine	-11.0065
▁ähnlich	-11.0077
▁Tanzen	-11.0078
▁lang	-11.0078
▁Baumes	-11.0083
▁follows	-11.0104
gestellt	-11.0126
▁far	-11.013
▁Schirmen	-11.0152
▁Schleife	-11.0155
▁Flaschen	-11.0168
arded	-11.0169
▁directions	-11.0212
▁bounc	-11.0225
▁bekleidet	-11.0234
bends	-11.0234
▁shades	-11.0249
▁catcher	-11.0254
▁aufgeregt	-11.027
▁wir	-11.0277
▁hoops	-11.0311
▁guns	-11.0346
hat	-11.0363
▁Stangen	-11.0363
▁follow	-11.0397
lten	-11.0407
▁mi	-11.0432
▁plates	-11.046
bad	-11.048
▁passenger	-11.0483
▁trunk	-11.0485
▁say	-11.0486
blade	-11.0491
▁Tennisspielerin	-11.0506
schwarz	-11.0509
och	-11.0514
▁Decken	-11.0522
essen	-11.0531
ligen	-11.054
▁verschieden	-11.0548
▁cage	-11.0553
▁Süßigkeiten	-11.0557
▁silberne	-11.056
▁Kiste	-11.056
▁verschneite	-11.0562
J	-11.0566
schaut	-11.0581
▁hike	-11.0618
▁tug	-11.0633
stürzt	-11.064
▁whil	-11.0647
hüte	-11.065
occer	-11.065
udio	-11.0652
▁jog	-11.0652
▁Krankenhaus	-11.0654
schutz	-11.0654
▁Coca	-11.0654
▁Halloween	-11.0654
▁Jenga	-11.0654
▁Pizza	-11.0654
geländer	-11.0654
kräfte	-11.0654
▁Bibliothek	-11.0654
▁Breakdance	-11.0654
▁Caucasian	-11.0654
▁Fernglas	-11.0654
▁Hotdog	-11.0654
▁Museum	-11.0654
▁Pfadfinder	-11.0654
▁Pfanne	-11.0654
▁Rettungswesten	-11.0654
▁Schmutz	-11.0654
▁Streifen	-11.0654
▁Tablett	-11.0654
▁Trainer	-11.0654
▁Zöpfen	-11.0654
▁aufmerksam	-11.0654
▁binoculars	-11.0654
▁character	-11.0654
▁chopp	-11.0654
▁consist	-11.0654
▁employee	-11.0654
▁exercise	-11.0654
▁gewickelt	-11.0654
▁gleichzeitig	-11.0654
▁pizza	-11.0654
▁ponytail	-11.0654
▁remov	-11.0654
▁schlammige	-11.0654
▁scoop	-11.0654
▁snowsuit	-11.0654
▁terrain	-11.0654
▁tricycle	-11.0654
▁weaving	-11.0654
▁wheelbarrow	-11.0654
▁würde	-11.0654
▁örtliche	-11.0654
scarves	-11.0654
▁downtown	-11.0654
▁drinnen	-11.0654
▁pottery	-11.0654
▁slightly	-11.0654
▁target	-11.0654
▁Stehen	-11.0654
▁Trink	-11.0654
▁fisherman	-11.0654
▁Aussicht	-11.0654
▁airborne	-11.0654
▁webt	-11.0654
▁kilt	-11.0654
▁Freu	-11.0654
▁Innenstadt	-11.0654
ößt	-11.0654
▁Lager	-11.0654
▁east	-11.0654
▁job	-11.0654
▁Schmuck	-11.0654
▁write	-11.0654
▁brows	-11.0654
▁disc	-11.0654
▁Segelboot	-11.0654
▁colli	-11.0654
▁Schach	-11.0654
▁schreiben	-11.0654
foto	-11.0654
▁Badezimmer	-11.0654
▁greifen	-11.0654
▁steel	-11.0654
brechen	-11.0654
▁Punkt	-11.0654
▁hindurch	-11.0654
▁Locken	-11.0654
▁Schlauchboot	-11.0654
▁beginnt	-11.0654
▁fetch	-11.0654
▁Stirnband	-11.0654
wohl	-11.0654
▁Aufführung	-11.0654
▁gown	-11.0654
▁dough	-11.0655
▁nature	-11.0655
▁bewegen	-11.0655
▁Blue	-11.0655
▁aisle	-11.0655
▁Asiatinnen	-11.0655
▁Blase	-11.0655
▁engine	-11.0655
▁formation	-11.0655
▁formelle	-11.0656
▁Akustikgitarre	-11.0656
stange	-11.0656
▁nail	-11.0657
▁Food	-11.0658
▁spielerisch	-11.0658
▁Marktplatz	-11.0659
▁closeup	-11.0659
▁feiert	-11.066
▁poor	-11.066
▁landet	-11.066
▁State	-11.0663
▁trip	-11.0663
▁vorbeigeht	-11.0663
▁Asiatische	-11.0664
▁uniformierte	-11.0666
küche	-11.0667
verkehr	-11.0668
ugh	-11.0669
▁Rollschuh	-11.0669
▁entlanggeht	-11.0671
flug	-11.0672
▁Radrennen	-11.0673
▁Fang	-11.0675
netz	-11.0681
▁semi	-11.0684
▁miss	-11.0686
▁Häusern	-11.07
▁Ringer	-11.0702
▁bush	-11.071
▁Hocker	-11.0713
▁wei	-11.0715
▁wig	-11.0715
▁Scheibe	-11.0716
ily	-11.072
▁photographed	-11.0722
▁leger	-11.0733
kette	-11.0733
▁Dose	-11.0733
▁Köpfen	-11.0735
▁ruhigen	-11.0748
▁It	-11.0762
▁Grimassen	-11.0764
▁sowi	-11.0767
gging	-11.0771
▁create	-11.0776
▁teen	-11.078
▁Eier	-11.0781
▁Wach	-11.0783
▁rag	-11.0794
addle	-11.0794
▁cree	-11.0797
üch	-11.0797
▁protesting	-11.0802
▁tourists	-11.0803
▁Students	-11.0804
▁arch	-11.0813
▁Blättern	-11.0841
▁gek	-11.0849
rying	-11.0884
kreis	-11.089
▁zubereitet	-11.0899
▁beleuchtet	-11.0904
▁drag	-11.0927
▁gelbbraune	-11.0939
▁neu	-11.0988
▁hut	-11.0991
▁appl	-11.1013
▁repairs	-11.1027
rote	-11.1035
▁tur	-11.104
▁bake	-11.1044
heit	-11.1059
weil	-11.1103
ltere	-11.1118
ürz	-11.1141
cular	-11.1154
▁probier	-11.1171
▁Japan	-11.1175
▁funn	-11.1201
▁aussehen	-11.1204
braune	-11.1206
▁ausgestreckt	-11.1237
▁customer	-11.1253
▁liegende	-11.1254
▁motori	-11.126
▁lie	-11.1304
pfad	-11.1321
▁Karte	-11.1325
öse	-11.133
▁grin	-11.1331
▁Stühle	-11.1331
▁Turn	-11.1332
▁Handschuh	-11.1334
Station	-11.1335
Zeichen	-11.1336
▁Auge	-11.1336
hängt	-11.1338
grill	-11.1339
▁fu	-11.1339
vo	-11.1341
fest	-11.1343
ziehen	-11.1351
oth	-11.1352
▁Dudelsack	-11.1356
▁Freundin	-11.1358
▁tropi	-11.1386
grauen	-11.1388
▁styl	-11.1391
▁Top	-11.1395
▁Szene	-11.141
rutsche	-11.1413
▁dunk	-11.1418
brett	-11.1422
gepflasterte	-11.1422
brille	-11.1422
▁Flug	-11.1423
zeichen	-11.1423
▁Vortrag	-11.1423
Gesichtsbemalung	-11.1423
genommen	-11.1423
▁Achterbahn	-11.1423
▁Anhänger	-11.1423
▁Aufnahme	-11.1423
▁Bauarbeiten	-11.1423
▁Flügel	-11.1423
▁Fänger	-11.1423
▁Gymnastik	-11.1423
▁Inlineskates	-11.1423
▁Kettensäge	-11.1423
▁Laborkittel	-11.1423
▁Pudel	-11.1423
▁Saxofon	-11.1423
▁Strickmütze	-11.1423
▁Subway	-11.1423
▁Turban	-11.1423
▁Versammlung	-11.1423
▁Wakeboard	-11.1423
▁Warnweste	-11.1423
▁Werkstatt	-11.1423
▁attention	-11.1423
▁bleachers	-11.1423
▁burgundy	-11.1423
▁chainsaw	-11.1423
▁debris	-11.1423
▁factory	-11.1423
▁geschmückt	-11.1423
▁gestikuliert	-11.1423
▁groceries	-11.1423
▁jubelt	-11.1423
▁klatscht	-11.1423
▁lecture	-11.1423
▁leotard	-11.1423
▁oven	-11.1423
▁portrait	-11.1423
▁rickshaw	-11.1423
▁service	-11.1423
▁sneakers	-11.1423
▁sniff	-11.1423
▁telephone	-11.1423
▁though	-11.1423
▁High	-11.1423
▁Kürbis	-11.1423
▁Pferdeschw	-11.1423
▁Shop	-11.1423
▁contest	-11.1423
▁sunbath	-11.1423
▁ticket	-11.1423
▁world	-11.1423
▁Elder	-11.1423
▁besucht	-11.1423
▁Athlet	-11.1423
▁rauchen	-11.1423
▁Fackel	-11.1423
▁crawl	-11.1423
▁loom	-11.1423
▁peak	-11.1423
▁Lacrosse	-11.1423
▁brauen	-11.1423
▁gemusterte	-11.1423
Kittel	-11.1423
▁dusk	-11.1423
▁assist	-11.1423
außen	-11.1423
▁Halstuch	-11.1423
▁ungewöhnliche	-11.1423
▁Europe	-11.1424
▁spotted	-11.1424
▁Marathonläufer	-11.1424
▁glid	-11.1424
▁bilden	-11.1424
▁Kabel	-11.1424
▁Ausstellung	-11.1424
▁Golfball	-11.1424
▁score	-11.1424
▁burn	-11.1424
▁pay	-11.1424
▁bound	-11.1425
▁surg	-11.1425
▁Gehen	-11.1426
haube	-11.1426
▁Tüte	-11.1427
▁Bass	-11.1428
platte	-11.1429
▁mug	-11.1429
▁ceremony	-11.1429
▁overhead	-11.143
▁waterfront	-11.1432
▁Asien	-11.1432
ständer	-11.1433
▁Sandwich	-11.1434
▁wh	-11.1435
▁movie	-11.1435
▁wings	-11.1435
▁Uhr	-11.1437
▁messy	-11.1437
▁studying	-11.144
▁Stern	-11.1442
▁coaster	-11.1442
▁chip	-11.1443
▁bevor	-11.1444
▁Video	-11.1445
▁twi	-11.1454
▁leckt	-11.1455
▁praying	-11.146
gefahren	-11.1461
▁Boxer	-11.1463
▁lower	-11.1468
▁careful	-11.1469
▁waterway	-11.1477
strecken	-11.1481
▁Kasse	-11.1501
▁meeting	-11.1501
▁Bällen	-11.1512
eilen	-11.1518
▁Station	-11.1518
▁Sieg	-11.1523
▁Hochzeitskleid	-11.1527
cause	-11.1527
▁gestures	-11.1528
▁eben	-11.1542
▁mess	-11.1546
▁Netze	-11.155
▁Softballspiel	-11.1564
Spring	-11.1566
▁eggs	-11.1571
▁firefighters	-11.1572
Rennfahrer	-11.1575
▁Tänzerin	-11.1575
▁Schilder	-11.1579
▁graben	-11.1581
▁Papiere	-11.1588
▁She	-11.1607
züg	-11.1621
▁Maler	-11.1632
▁Fingern	-11.1651
▁landing	-11.1653
▁grillen	-11.1657
▁dig	-11.1669
▁vorbereitet	-11.1685
▁fashion	-11.1736
schl	-11.1743
liegenden	-11.1762
▁Seilen	-11.1766
▁Straßenarbeite	-11.1808
▁Kunstwerke	-11.1815
▁Kle	-11.1837
nehmen	-11.1881
▁boxer	-11.1886
▁Klein	-11.189
utter	-11.1905
zw	-11.1961
▁listen	-11.2001
▁strap	-11.2016
kund	-11.2016
▁Student	-11.2045
▁tourist	-11.2084
▁chines	-11.2094
hole	-11.2108
▁Stroh	-11.2111
schmiert	-11.2133
▁Ju	-11.2138
führen	-11.2145
▁Bälle	-11.2161
▁Köpfe	-11.2162
▁Hüte	-11.2162
▁Welpe	-11.2162
▁America	-11.2164
instrument	-11.2165
horn	-11.2167
coat	-11.217
gestreifte	-11.2172
house	-11.2172
springt	-11.2172
▁scaffold	-11.2173
Hut	-11.2175
▁meet	-11.218
pool	-11.2181
▁spin	-11.2202
▁Tätowierung	-11.2218
▁mow	-11.2223
▁sweat	-11.2226
nzende	-11.223
▁Tiere	-11.2238
▁Reise	-11.2241
▁Beleuchtung	-11.2241
kuchen	-11.2243
▁Wohn	-11.2243
becken	-11.2245
▁call	-11.2248
gehoben	-11.2251
▁Kreuz	-11.2253
scheibe	-11.2255
oberteil	-11.2256
▁Jahr	-11.2256
mount	-11.2256
adminton	-11.2256
uarterback	-11.2256
▁Asphalt	-11.2256
▁Draht	-11.2256
▁Fabrik	-11.2256
▁Imbiss	-11.2256
▁Kellner	-11.2256
▁Kneipe	-11.2256
▁Rettungs	-11.2256
▁Schieß	-11.2256
▁Während	-11.2256
▁Yoga	-11.2256
▁begeistert	-11.2256
▁explor	-11.2256
▁purchas	-11.2256
behälter	-11.2256
projekt	-11.2256
quoi	-11.2256
schlauch	-11.2256
schnüffelt	-11.2256
▁Anweisung	-11.2256
▁Bahngleis	-11.2256
▁Banjo	-11.2256
▁Banner	-11.2256
▁Female	-11.2256
▁Früchte	-11.2256
▁Haltung	-11.2256
▁Hinterbeine	-11.2256
▁Lieferwagen	-11.2256
▁Operation	-11.2256
▁Pilot	-11.2256
▁Police	-11.2256
▁Rikscha	-11.2256
▁Schulkinder	-11.2256
▁Teilnehmer	-11.2256
▁Treppenstufen	-11.2256
▁Umhänge	-11.2256
▁Vergnügungspark	-11.2256
▁Wassermelone	-11.2256
▁Werfer	-11.2256
▁angeboten	-11.2256
▁ansieht	-11.2256
▁attracti	-11.2256
▁aufgereiht	-11.2256
▁await	-11.2256
▁backdrop	-11.2256
▁bamboo	-11.2256
▁banana	-11.2256
▁begleitet	-11.2256
▁beisammen	-11.2256
▁celebration	-11.2256
▁descend	-11.2256
▁elektrische	-11.2256
▁experiment	-11.2256
▁herumstehen	-11.2256
▁iPod	-11.2256
▁inspizier	-11.2256
▁juice	-11.2256
▁knife	-11.2256
▁kümmert	-11.2256
▁merchandise	-11.2256
▁monument	-11.2256
▁motion	-11.2256
▁pigtails	-11.2256
▁poodle	-11.2256
▁prüft	-11.2256
▁pumpkin	-11.2256
▁reflektierende	-11.2256
▁sailboat	-11.2256
▁schnitzt	-11.2256
▁schützen	-11.2256
▁second	-11.2256
▁select	-11.2256
▁struggl	-11.2256
▁support	-11.2256
▁trolley	-11.2256
▁trübe	-11.2256
▁turban	-11.2256
▁umpire	-11.2256
▁unique	-11.2256
▁verletzt	-11.2256
▁watermelon	-11.2256
▁yoga	-11.2256
▁Bambus	-11.2256
▁Cello	-11.2256
▁Mexic	-11.2256
▁Namensschild	-11.2256
▁Nebel	-11.2256
▁School	-11.2256
▁acrobat	-11.2256
▁banjo	-11.2256
▁bystanders	-11.2256
▁cello	-11.2256
▁crayon	-11.2256
▁location	-11.2256
▁sauber	-11.2256
▁stoop	-11.2256
▁clapping	-11.2256
▁Einkäufer	-11.2256
▁crown	-11.2256
▁lernt	-11.2256
▁Pink	-11.2256
▁lacrosse	-11.2256
science	-11.2256
▁forehead	-11.2256
▁Engel	-11.2256
▁tomato	-11.2256
▁Spaziergang	-11.2256
▁Waschbecken	-11.2256
▁strange	-11.2256
▁gymnastics	-11.2256
▁emergency	-11.2256
▁slic	-11.2256
▁task	-11.2256
▁fremde	-11.2257
▁Snack	-11.2257
▁incline	-11.2257
▁Fischernetz	-11.2257
▁putzen	-11.2257
▁Apfel	-11.2257
ähne	-11.2257
▁gemacht	-11.2257
▁schmale	-11.2257
▁hip	-11.2257
▁blood	-11.2257
▁paddeln	-11.2257
▁deutsche	-11.2257
▁Apple	-11.2257
▁Laster	-11.2257
sägt	-11.2257
▁Badeanzügen	-11.2257
▁Staub	-11.2257
▁Treppenhaus	-11.2257
▁Jeep	-11.2257
▁NY	-11.2258
▁Board	-11.2258
▁Sprungbrett	-11.2258
▁brother	-11.2258
Maschendrahtzaun	-11.2258
▁Warte	-11.2258
▁Stahl	-11.2258
▁Strom	-11.2258
▁eight	-11.2258
▁countryside	-11.2258
▁knall	-11.2259
taubsaug	-11.2259
▁chess	-11.2259
▁alleyway	-11.2259
▁suchen	-11.2259
ität	-11.2259
▁Betonwand	-11.2259
▁Bohr	-11.226
▁paperwork	-11.226
▁abgestellt	-11.226
kegel	-11.226
lampe	-11.2261
▁Schaf	-11.2262
▁tut	-11.2263
▁case	-11.2263
▁fell	-11.2263
▁soap	-11.2263
▁Papa	-11.2264
▁Fußballteam	-11.2264
▁Schau	-11.2264
▁firemen	-11.2264
▁wheelie	-11.2264
▁sold	-11.2267
▁Autobahn	-11.2267
▁teal	-11.2268
▁Wasserrutsche	-11.2268
▁Knöpfen	-11.2269
▁flat	-11.2269
ribal	-11.2269
▁Ballett	-11.227
▁hotel	-11.227
▁Fahrradhelm	-11.2272
▁gepunkteten	-11.2277
▁Sicht	-11.2278
▁label	-11.2279
▁Reis	-11.2281
▁wares	-11.2285
▁Asia	-11.2289
▁mower	-11.229
▁Mitarbeiter	-11.2291
▁Tätowierungen	-11.2295
▁tropische	-11.2297
▁Gesichtern	-11.2298
zz	-11.2304
▁rust	-11.2308
cial	-11.231
▁packt	-11.2316
▁parasail	-11.2325
▁bagpipes	-11.2325
wachsen	-11.2328
▁Dreirad	-11.2328
▁Klasse	-11.2329
mannschaften	-11.2332
▁Geräten	-11.2336
▁Medi	-11.2337
▁stir	-11.234
otte	-11.2354
▁vordere	-11.2359
▁headdress	-11.2365
▁bemalten	-11.2393
▁package	-11.2394
▁dad	-11.2414
▁geöffnet	-11.2424
▁Trommeln	-11.2445
▁Türen	-11.2448
▁legen	-11.2481
pass	-11.2481
Ha	-11.2506
chor	-11.2511
ith	-11.2572
ston	-11.2607
▁orientalisch	-11.2625
head	-11.2636
▁fröhlich	-11.2664
▁Kleinkinder	-11.2676
▁angezogene	-11.268
stützt	-11.2691
echten	-11.2778
ppy	-11.2786
▁cro	-11.2809
▁Kerle	-11.2824
▁port	-11.2835
▁nass	-11.2871
▁find	-11.2903
ular	-11.294
grüne	-11.2949
▁Nach	-11.2966
▁niedrige	-11.2974
▁firefighter	-11.2992
▁egg	-11.2993
▁Alter	-11.3003
tuch	-11.3013
▁dunkel	-11.3034
ritten	-11.3043
stab	-11.3048
▁wi	-11.3064
spritzt	-11.3069
▁flache	-11.3071
▁lock	-11.3072
graben	-11.3078
zeichnet	-11.3079
schwimmen	-11.308
Outfit	-11.308
Geschäft	-11.308
bike	-11.3081
American	-11.3082
orange	-11.3084
▁spike	-11.3088
erkun	-11.3092
Sicherheitsweste	-11.3107
▁Fahr	-11.3118
onder	-11.312
ängen	-11.3124
▁Frei	-11.3136
▁coast	-11.3143
tiefeln	-11.3161
maske	-11.3164
▁construct	-11.3164
künstler	-11.3164
▁Picknick	-11.3164
automaten	-11.3165
tafel	-11.3165
nterwäsche	-11.3165
▁Geschwi	-11.3165
▁unordentlich	-11.3165
wohn	-11.3165
▁Beachvolleyball	-11.3165
▁Eiswaffel	-11.3165
▁Felsvorsprung	-11.3165
▁Möwe	-11.3165
▁Ureinwohner	-11.3165
▁Vorrichtung	-11.3165
▁accompani	-11.3165
▁assembl	-11.3165
▁parallel	-11.3165
▁traurig	-11.3165
Baseballschläger	-11.3165
Festival	-11.3165
Krankenschwester	-11.3165
geschoben	-11.3165
gespannt	-11.3165
schüssel	-11.3165
wettbewerb	-11.3165
▁Erzeugnisse	-11.3165
▁Experiment	-11.3165
▁Händchen	-11.3165
▁Kragen	-11.3165
▁Miami	-11.3165
▁Monopoly	-11.3165
▁Namen	-11.3165
▁Pfeil	-11.3165
▁Rahmen	-11.3165
▁Runners	-11.3165
▁Röhre	-11.3165
▁Smoking	-11.3165
▁Stunt	-11.3165
▁Telefonzelle	-11.3165
▁Türöffnung	-11.3165
▁Vorderseite	-11.3165
▁Webstuhl	-11.3165
▁Zylinder	-11.3165
▁abgeworfen	-11.3165
▁arcade	-11.3165
▁attraktive	-11.3165
▁auditorium	-11.3165
▁bräunliche	-11.3165
▁cheese	-11.3165
▁christmas	-11.3165
▁dribbl	-11.3165
▁elevat	-11.3165
▁expression	-11.3165
▁gefleckte	-11.3165
▁guide	-11.3165
▁huddle	-11.3165
▁judge	-11.3165
▁laundromat	-11.3165
▁möglicherweise	-11.3165
▁notebook	-11.3165
▁pocket	-11.3165
▁präsentiert	-11.3165
▁puppies	-11.3165
▁rapids	-11.3165
▁rifle	-11.3165
▁rollerblading	-11.3165
▁rückwärts	-11.3165
▁sammeln	-11.3165
▁schwebt	-11.3165
▁schütteln	-11.3165
▁serviert	-11.3165
▁säuber	-11.3165
▁underwear	-11.3165
▁unusual	-11.3165
▁vergnügt	-11.3165
▁versteck	-11.3165
▁visible	-11.3165
▁weapon	-11.3165
▁Lippen	-11.3165
▁handrail	-11.3165
▁measur	-11.3165
▁pirate	-11.3165
▁Banane	-11.3165
▁Batman	-11.3165
▁Lasso	-11.3165
▁besteht	-11.3165
▁schwingen	-11.3165
▁yarn	-11.3165
▁Perlen	-11.3165
▁gesprungen	-11.3165
▁separate	-11.3165
▁staubige	-11.3165
▁verteilt	-11.3165
▁Beamte	-11.3165
▁Werbe	-11.3165
▁butcher	-11.3165
▁surgery	-11.3165
▁potato	-11.3165
▁Lagerfeuer	-11.3165
füllen	-11.3165
▁rudern	-11.3165
reckt	-11.3165
▁Rosa	-11.3165
▁supplies	-11.3165
▁schlecht	-11.3166
▁verzierte	-11.3166
▁Tracht	-11.3166
▁heavi	-11.3166
▁Ofen	-11.3166
▁Turnschuhen	-11.3166
▁Untergrund	-11.3166
▁rice	-11.3166
▁medium	-11.3166
leitung	-11.3166
▁Begleit	-11.3166
▁Walk	-11.3166
▁Kante	-11.3166
gitter	-11.3166
▁joy	-11.3166
▁Bordstein	-11.3166
▁Erdhügel	-11.3166
▁Ziegelsteine	-11.3166
becher	-11.3166
▁Horn	-11.3166
▁grauhaarige	-11.3166
▁pedal	-11.3166
rtikel	-11.3166
▁Nagel	-11.3166
oogie	-11.3166
▁attack	-11.3166
▁transportiert	-11.3166
▁chalkboard	-11.3167
▁Dirt	-11.3167
▁teilnehmen	-11.3167
▁Schlagmann	-11.3167
▁Parti	-11.3167
▁suspenders	-11.3167
▁Brettspiel	-11.3167
▁Karussell	-11.3167
▁Redner	-11.3167
▁spanische	-11.3167
▁Stofftier	-11.3167
▁politi	-11.3167
▁Geländewagen	-11.3167
▁meiste	-11.3168
▁dump	-11.3168
▁Dunk	-11.3168
phon	-11.3168
▁shoreline	-11.3168
▁reflection	-11.3169
▁human	-11.3169
burg	-11.3169
▁homeless	-11.317
▁Ruder	-11.317
▁Obststand	-11.317
▁Fußballdress	-11.317
ansammlung	-11.317
▁chatting	-11.3171
▁descent	-11.3171
sichtig	-11.3171
Saiteninstrument	-11.3171
rimmed	-11.3171
▁sunlight	-11.3172
▁Einsatz	-11.3172
▁baum	-11.3172
wolke	-11.3173
▁Stamm	-11.3173
▁Bord	-11.3174
pult	-11.3174
▁Dock	-11.3174
▁highway	-11.3175
mauer	-11.3175
▁stall	-11.3175
punkt	-11.3175
▁cli	-11.3175
▁lens	-11.3176
▁Holzbank	-11.3176
▁Dress	-11.3178
▁Fass	-11.3178
▁Pass	-11.3181
▁TV	-11.3181
▁geschnitten	-11.3182
▁Eiscreme	-11.3183
▁Stab	-11.3184
▁screaming	-11.3186
▁ador	-11.3186
▁retriev	-11.3186
▁angebracht	-11.3187
▁squat	-11.3188
▁Gläsern	-11.3188
▁Schnur	-11.3189
▁treiben	-11.3189
▁Lu	-11.3191
führung	-11.3191
fang	-11.3194
▁bietet	-11.3195
lapp	-11.3196
▁fern	-11.3196
▁langärmeligen	-11.3198
▁single	-11.32
▁swa	-11.3201
▁closely	-11.3201
▁defender	-11.3202
▁Gericht	-11.3204
▁Post	-11.3206
▁Rast	-11.3208
▁folded	-11.3215
überdachte	-11.3222
▁furr	-11.3227
▁carve	-11.3233
säge	-11.3237
▁goldfarbene	-11.3237
gläser	-11.3239
▁salon	-11.3246
ehrt	-11.3252
▁Säulen	-11.3253
▁dropp	-11.3253
▁lifted	-11.3266
kopf	-11.3288
▁hind	-11.3307
▁crossed	-11.3311
wart	-11.3332
ix	-11.3346
▁ballet	-11.3347
▁spa	-11.3355
▁versch	-11.3366
schiedenfarbige	-11.3374
▁speaker	-11.3388
▁stepp	-11.3394
▁my	-11.3394
▁fein	-11.3422
schuhen	-11.3428
pflanzen	-11.3443
zunehmen	-11.3448
▁ruhige	-11.3457
Straßenverkäufer	-11.3476
aune	-11.3531
▁late	-11.3572
the	-11.3632
▁Schneeschuhe	-11.368
rädern	-11.3715
iko	-11.3802
▁Nati	-11.3803
rmel	-11.3847
kommen	-11.3882
▁bedruckte	-11.39
▁Bad	-11.3903
▁Asiat	-11.3904
farbig	-11.3925
▁flo	-11.3937
▁candle	-11.3994
▁sip	-11.3996
▁even	-11.4062
▁Säule	-11.407
▁Pflanze	-11.4073
folgt	-11.4076
Scheibe	-11.4078
schlafen	-11.4079
grün	-11.4079
salon	-11.4079
hammer	-11.408
body	-11.4081
Kleidung	-11.4081
hinter	-11.4081
green	-11.4081
zieht	-11.4091
uell	-11.4093
▁Backstein	-11.4114
back	-11.4121
▁padd	-11.4126
▁amüsier	-11.4128
▁Handschuhe	-11.4141
▁sandige	-11.4145
violett	-11.4151
▁kau	-11.4152
zaun	-11.416
hepherd	-11.4161
pectators	-11.4162
▁instruct	-11.4163
▁conduct	-11.4163
▁transport	-11.4164
treppe	-11.4164
edestrians	-11.4164
▁sculpt	-11.4165
brücke	-11.4165
drängt	-11.4165
trommel	-11.4165
▁Canad	-11.4165
▁Seattle	-11.4165
▁Tomaten	-11.4165
Obama	-11.4165
bändern	-11.4165
digkeit	-11.4165
ffentlichkeit	-11.4165
konzert	-11.4165
ntfern	-11.4165
wissenschaftlich	-11.4165
▁Auslage	-11.4165
▁Bergsteiger	-11.4165
▁Bruder	-11.4165
▁Couple	-11.4165
▁Demonstrant	-11.4165
▁Design	-11.4165
▁Dämmerung	-11.4165
▁Fontäne	-11.4165
▁Frisur	-11.4165
▁Gipfel	-11.4165
▁Hoodie	-11.4165
▁Hüfte	-11.4165
▁Jogger	-11.4165
▁Kiefer	-11.4165
▁Kühl	-11.4165
▁Leinwand	-11.4165
▁Obdachlose	-11.4165
▁Olympische	-11.4165
▁Player	-11.4165
▁Porträt	-11.4165
▁Pullunder	-11.4165
▁Schaulustige	-11.4165
▁Schmetterling	-11.4165
▁Stelzen	-11.4165
▁Strumpfhose	-11.4165
▁Swimmingpool	-11.4165
▁Verteidiger	-11.4165
▁Volks	-11.4165
▁Zahn	-11.4165
▁abgebildet	-11.4165
▁activity	-11.4165
▁bewaldete	-11.4165
▁blazer	-11.4165
▁bouquet	-11.4165
▁canvas	-11.4165
▁contraption	-11.4165
▁curve	-11.4165
▁earphones	-11.4165
▁elektronische	-11.4165
▁embracing	-11.4165
▁erhobene	-11.4165
▁erklimmen	-11.4165
▁facility	-11.4165
▁frozen	-11.4165
▁gallery	-11.4165
▁harvest	-11.4165
▁injured	-11.4165
▁interesting	-11.4165
▁jeweil	-11.4165
▁kratzt	-11.4165
▁launch	-11.4165
▁leggings	-11.4165
▁ließt	-11.4165
▁lobby	-11.4165
▁löschen	-11.4165
▁maneuver	-11.4165
▁medizinische	-11.4165
▁militärische	-11.4165
▁neugeborene	-11.4165
▁passersby	-11.4165
▁patron	-11.4165
▁pillar	-11.4165
▁quarterback	-11.4165
▁quiet	-11.4165
▁recline	-11.4165
▁schipp	-11.4165
▁schneit	-11.4165
▁section	-11.4165
▁senior	-11.4165
▁special	-11.4165
▁stilts	-11.4165
▁stolz	-11.4165
▁trashcan	-11.4165
▁trifft	-11.4165
▁valley	-11.4165
▁verbunden	-11.4165
▁wakeboard	-11.4165
▁workshop	-11.4165
gepackt	-11.4165
▁British	-11.4165
▁Drink	-11.4165
▁Kabine	-11.4165
▁Leggings	-11.4165
▁Sattel	-11.4165
▁angemalte	-11.4165
▁highchair	-11.4165
▁unterrichtet	-11.4165
▁blurr	-11.4165
▁fischt	-11.4165
▁flash	-11.4165
▁interagier	-11.4165
▁lemon	-11.4165
▁verwenden	-11.4165
▁letzte	-11.4165
heruntergekommen	-11.4165
▁scrap	-11.4165
▁Reklametafel	-11.4165
▁Schutt	-11.4165
▁einfach	-11.4165
▁mischt	-11.4165
▁Kilt	-11.4165
▁bockende	-11.4165
▁monkey	-11.4165
▁Unfall	-11.4165
▁dumpster	-11.4165
▁Ampel	-11.4165
▁Käse	-11.4165
▁modisch	-11.4165
▁emerg	-11.4166
▁snap	-11.4166
loseup	-11.4166
▁Freizeitpark	-11.4166
▁twirl	-11.4166
▁than	-11.4166
▁Garn	-11.4166
▁Klappstuhl	-11.4166
▁sideways	-11.4166
▁Essensstand	-11.4166
lannel	-11.4166
▁Waschmaschine	-11.4166
▁tripod	-11.4166
greif	-11.4166
▁Mülleimer	-11.4166
▁organiz	-11.4166
▁Ziellinie	-11.4166
▁spotlight	-11.4166
▁Esstisch	-11.4166
▁Afrikaner	-11.4166
uad	-11.4166
schlacht	-11.4166
▁kauert	-11.4166
▁transportation	-11.4166
▁festgebunden	-11.4166
chnitt	-11.4166
▁Lots	-11.4166
tackelt	-11.4166
▁rutschen	-11.4166
▁Steintreppe	-11.4167
▁Unterhemd	-11.4167
▁Ziegelwand	-11.4167
▁Schiene	-11.4167
▁Rasier	-11.4167
▁erleuchtete	-11.4167
▁Block	-11.4167
zoo	-11.4167
▁Winterjacke	-11.4167
▁Rugbyspieler	-11.4167
▁need	-11.4167
▁Marke	-11.4167
▁Metallstange	-11.4167
▁artwork	-11.4167
▁rally	-11.4167
▁diner	-11.4168
▁Holzzaun	-11.4168
▁Landstraße	-11.4168
▁apart	-11.4168
▁quickly	-11.4168
nähe	-11.4168
▁driveway	-11.4168
▁Axt	-11.4168
▁Straßenseite	-11.4169
▁Aufzug	-11.4169
▁Streich	-11.417
▁Turm	-11.417
▁Innen	-11.417
▁staff	-11.417
stöcken	-11.417
▁tail	-11.417
ingham	-11.4171
▁Farm	-11.4171
garten	-11.4171
▁rooftop	-11.4171
▁sorg	-11.4171
▁erhält	-11.4173
▁Holzboden	-11.4173
▁mass	-11.4174
▁steer	-11.4174
▁Khakihose	-11.4174
nude	-11.4174
▁Sari	-11.4176
▁wenig	-11.4177
kiste	-11.4177
▁done	-11.4177
▁cable	-11.4177
▁Feuerwehrauto	-11.418
▁Präsentation	-11.418
▁gesehen	-11.4181
theke	-11.4182
▁Segel	-11.4182
▁Bill	-11.4183
▁roadside	-11.4183
▁branches	-11.4184
▁Bandmitglieder	-11.4185
▁approaches	-11.419
junge	-11.4192
▁Gleisen	-11.4192
▁workout	-11.4193
▁größeren	-11.4196
▁fischen	-11.4197
bogen	-11.4201
▁filmt	-11.421
spitze	-11.4211
▁tutu	-11.4211
▁formt	-11.4218
▁Sommer	-11.4231
▁streichen	-11.4237
▁Gitarristen	-11.4242
oney	-11.4249
▁Schritt	-11.4252
▁nasser	-11.4253
▁passiert	-11.4259
▁fit	-11.4275
Schutzausrüstung	-11.4284
▁musta	-11.4296
▁Fu	-11.4308
▁darin	-11.4316
▁navigate	-11.4324
Wel	-11.4324
▁cooler	-11.4327
▁battl	-11.4339
▁squa	-11.4353
▁strike	-11.438
▁real	-11.4396
▁mind	-11.4403
wend	-11.4406
mach	-11.4433
▁main	-11.4442
▁wirk	-11.446
spi	-11.4464
▁washer	-11.4481
ngles	-11.4494
▁drape	-11.4497
▁Go	-11.4527
loch	-11.4663
training	-11.4688
▁power	-11.4693
▁zweite	-11.4734
▁classic	-11.4825
dults	-11.4866
iki	-11.4895
▁gaz	-11.4902
konstruktion	-11.499
▁bark	-11.5045
▁sad	-11.5065
bett	-11.5079
legen	-11.5127
hütte	-11.5133
▁groß	-11.5157
▁drop	-11.5169
▁bicycl	-11.5174
▁kalte	-11.5183
▁steile	-11.5183
nimmt	-11.519
Team	-11.5191
werfen	-11.5191
gibt	-11.5191
Mannschaft	-11.5191
girl	-11.5191
Basketball	-11.5192
striped	-11.5192
field	-11.5192
person	-11.5192
party	-11.5194
▁yo	-11.5199
geben	-11.5202
▁buck	-11.5205
friend	-11.5207
▁spazier	-11.5213
▁sprinkl	-11.5217
▁Mitglied	-11.5224
haarige	-11.5239
▁Hockeyspiel	-11.5239
▁dri	-11.524
▁Handwerk	-11.5246
▁näher	-11.5256
▁Geburtstag	-11.5258
leuchtet	-11.5265
▁Flip	-11.5268
▁chin	-11.5272
▁demonstrat	-11.5275
schmuck	-11.5275
gebunden	-11.5275
zimmer	-11.5276
schreib	-11.5276
▁horizon	-11.5276
▁monk	-11.5276
streifen	-11.5276
struktur	-11.5276
▁Absperrung	-11.5276
▁Concert	-11.5276
▁Disney	-11.5276
▁Nike	-11.5276
▁Nudel	-11.5276
▁University	-11.5276
▁Zusammen	-11.5276
▁förmlich	-11.5276
▁unhappy	-11.5276
fahrrad	-11.5277
fältig	-11.5277
karren	-11.5277
putzer	-11.5277
schützer	-11.5277
technik	-11.5277
vorrichtung	-11.5277
▁Bauernmarkt	-11.5277
▁Begeisterung	-11.5277
▁Betrachter	-11.5277
▁Bicyclist	-11.5277
▁Bündel	-11.5277
▁Darbietung	-11.5277
▁Felsbrocken	-11.5277
▁Flussufer	-11.5277
▁Garage	-11.5277
▁Gehstock	-11.5277
▁Hamburger	-11.5277
▁Irokesenschnitt	-11.5277
▁Kapuzenpullover	-11.5277
▁Karohemd	-11.5277
▁Konstruktion	-11.5277
▁Kraft	-11.5277
▁Käfig	-11.5277
▁Muslim	-11.5277
▁Nachbarschaft	-11.5277
▁Neugeborenes	-11.5277
▁Speedo	-11.5277
▁Stativ	-11.5277
▁Stromschnellen	-11.5277
▁Wollmütze	-11.5277
▁afternoon	-11.5277
▁akustische	-11.5277
▁anhaben	-11.5277
▁ausgezogen	-11.5277
▁bedroom	-11.5277
▁belongings	-11.5277
▁breakdancing	-11.5277
▁butterfly	-11.5277
▁bürste	-11.5277
▁caucasian	-11.5277
▁chocolate	-11.5277
▁chopsticks	-11.5277
▁concentrat	-11.5277
▁congregate	-11.5277
▁content	-11.5277
▁digital	-11.5277
▁dribbelt	-11.5277
▁entfernen	-11.5277
▁erhöht	-11.5277
▁every	-11.5277
▁folgen	-11.5277
▁gebückt	-11.5277
▁getroffen	-11.5277
▁helicopter	-11.5277
▁heraushängen	-11.5277
▁illuminat	-11.5277
▁industri	-11.5277
▁kastanienbraune	-11.5277
▁marineblaue	-11.5277
▁morning	-11.5277
▁möchte	-11.5277
▁numer	-11.5277
▁nächtliche	-11.5277
▁pencil	-11.5277
▁pilot	-11.5277
▁schlendert	-11.5277
▁schmetter	-11.5277
▁schützt	-11.5277
▁seagull	-11.5277
▁smooth	-11.5277
▁sparring	-11.5277
▁squeez	-11.5277
▁umzäunte	-11.5277
▁unglücklich	-11.5277
▁unload	-11.5277
▁vergnügen	-11.5277
▁vorführt	-11.5277
▁völlig	-11.5277
schnapp	-11.5277
▁Beutel	-11.5277
▁Forscher	-11.5277
▁Lokal	-11.5277
▁Plate	-11.5277
▁bathtub	-11.5277
▁bedienen	-11.5277
▁built	-11.5277
▁foliage	-11.5277
▁gesturing	-11.5277
▁know	-11.5277
▁lasso	-11.5277
▁pinata	-11.5277
▁rollerblades	-11.5277
▁shawl	-11.5277
▁Morgen	-11.5277
▁muskul	-11.5277
▁pads	-11.5277
▁waist	-11.5277
ändige	-11.5277
▁Leucht	-11.5277
▁Mönch	-11.5277
▁Pelz	-11.5277
▁bindet	-11.5277
▁gefangen	-11.5277
▁Verkaufsstand	-11.5277
▁border	-11.5277
▁mechanic	-11.5277
turnier	-11.5277
▁cherry	-11.5277
▁umringt	-11.5277
▁erreichen	-11.5277
▁Camping	-11.5277
▁Schlafzimmer	-11.5277
ahrschein	-11.5277
▁wrist	-11.5277
blöcke	-11.5277
▁Perücke	-11.5277
▁letter	-11.5277
▁pretend	-11.5277
▁Pirat	-11.5277
▁decorations	-11.5277
▁ATM	-11.5277
▁Wildwasser	-11.5277
▁riot	-11.5277
kraft	-11.5277
▁dränge	-11.5277
östliche	-11.5277
▁Flipflops	-11.5277
▁season	-11.5277
▁historische	-11.5277
▁gemalt	-11.5277
▁Oberfläche	-11.5277
▁Nachrichten	-11.5277
▁hocken	-11.5277
▁cannon	-11.5277
▁daran	-11.5277
▁sichtbar	-11.5277
▁rostige	-11.5277
▁synchroniz	-11.5277
▁Paket	-11.5277
▁Plüschtier	-11.5277
▁Polohemd	-11.5277
▁Außenbereich	-11.5277
▁spül	-11.5277
mitarbeiter	-11.5277
▁Aufgabe	-11.5277
▁Mitspieler	-11.5277
▁Regenbogen	-11.5278
▁Speer	-11.5278
▁Ziegelgebäude	-11.5278
▁Ansicht	-11.5278
▁Fußballtrikot	-11.5278
▁raincoat	-11.5278
▁Tanzfläche	-11.5278
▁beret	-11.5278
▁Spiegelbild	-11.5278
▁Studio	-11.5278
▁install	-11.5278
▁Laufbahn	-11.5278
▁angehalten	-11.5278
späht	-11.5279
▁Rasenfläche	-11.5279
▁sonnen	-11.5279
eister	-11.5279
▁stump	-11.5279
▁hook	-11.5279
▁icy	-11.5279
▁Sandburg	-11.5279
▁protestiert	-11.5279
▁gelangen	-11.528
▁langärmlige	-11.528
▁Kopfschmuck	-11.528
▁grasp	-11.528
▁Kampfsportler	-11.528
Work	-11.528
▁Sandhügel	-11.528
▁Tennisplatz	-11.5281
reihe	-11.5281
▁Shepherd	-11.5282
▁braid	-11.5282
kasten	-11.5282
▁Musikgruppe	-11.5283
▁rake	-11.5283
▁file	-11.5284
▁Eiswagen	-11.5286
▁Ober	-11.5286
▁trench	-11.5287
▁pathway	-11.5287
▁arriv	-11.5287
count	-11.5288
rrangement	-11.5288
▁want	-11.5288
▁Grau	-11.5289
▁cott	-11.5291
▁Wasserbecken	-11.5292
▁Wohnung	-11.5294
▁checkers	-11.5296
zzy	-11.5297
▁Patienten	-11.5297
▁raus	-11.5298
miling	-11.5304
▁Wasserfläche	-11.5305
▁Arab	-11.5307
▁bestellen	-11.5308
▁mur	-11.5314
▁Inder	-11.5316
eimer	-11.5318
▁hervor	-11.533
▁brushes	-11.5333
▁think	-11.5336
▁wieder	-11.534
▁cookie	-11.5344
▁varie	-11.5348
▁Großer	-11.5349
▁crack	-11.5364
heel	-11.5369
▁angezogener	-11.5383
Logo	-11.5387
▁Pose	-11.5388
inting	-11.5398
artender	-11.5406
anyon	-11.5412
▁cave	-11.5416
▁Mit	-11.5438
▁Tennisschuh	-11.5443
Car	-11.5453
Wh	-11.5462
oße	-11.5485
aint	-11.5501
ohawk	-11.5509
▁verbring	-11.551
bell	-11.5542
▁vorübergeh	-11.5565
▁Wett	-11.5566
Holzkonstruktion	-11.5571
▁farbenfroh	-11.5578
gefeuert	-11.5588
truck	-11.5589
ford	-11.5634
üste	-11.5649
front	-11.5655
day	-11.5671
agged	-11.5721
▁Rac	-11.5766
werkzeug	-11.5781
▁Schweiß	-11.5794
owl	-11.581
▁Nin	-11.5826
▁shi	-11.5828
▁gerichtet	-11.5864
▁albern	-11.5878
▁bestehend	-11.5915
fashioned	-11.5942
▁Chi	-11.5968
▁blaugrüne	-11.5971
▁ruhig	-11.5972
hof	-11.5988
▁bounce	-11.5997
iegt	-11.6024
▁Bauwerk	-11.6048
▁verlassene	-11.6056
▁splash	-11.6093
▁schwimmende	-11.6117
ränkte	-11.6197
feuert	-11.6198
▁sleep	-11.6275
▁lea	-11.6298
▁frei	-11.6314
cap	-11.6324
ipping	-11.6329
▁gesture	-11.6353
▁rid	-11.6375
▁Kid	-11.6392
amerikanische	-11.6404
ütze	-11.641
▁indian	-11.6414
strecke	-11.6431
kommt	-11.6431
▁Stiefel	-11.6434
▁India	-11.6434
▁hellblaue	-11.6436
tragen	-11.6437
crew	-11.6439
hoop	-11.644
paved	-11.644
cast	-11.6441
▁Taube	-11.6441
Football	-11.6441
wirft	-11.6442
orangefarbenen	-11.6442
piece	-11.6444
view	-11.6446
Band	-11.6446
eginn	-11.645
guckt	-11.6464
▁größer	-11.6488
caf	-11.6496
▁Footballspiel	-11.6509
▁compan	-11.6512
agle	-11.6515
▁Khaki	-11.6515
äufer	-11.6519
▁clut	-11.6523
ctors	-11.6523
saugt	-11.6523
▁vend	-11.6525
edient	-11.6525
irefighters	-11.6525
verkauf	-11.6526
▁Schlaf	-11.6526
▁Tank	-11.6526
▁cigar	-11.6526
zentrum	-11.6526
▁Urlaub	-11.6526
▁Oklahoma	-11.6526
objekt	-11.6526
▁Teddybär	-11.6526
▁Yamaha	-11.6526
▁kimono	-11.6526
▁religious	-11.6526
▁verwirrt	-11.6526
Flops	-11.6527
bluse	-11.6527
führer	-11.6527
klammert	-11.6527
onvention	-11.6527
orridor	-11.6527
papier	-11.6527
pfosten	-11.6527
wählt	-11.6527
ylophon	-11.6527
zündet	-11.6527
▁Aktentasche	-11.6527
▁Backflip	-11.6527
▁Baumstumpf	-11.6527
▁Blaskapelle	-11.6527
▁Domino	-11.6527
▁Dunkelheit	-11.6527
▁Feuerstelle	-11.6527
▁Fotograph	-11.6527
▁Fächer	-11.6527
▁Glatze	-11.6527
▁Gleichgewicht	-11.6527
▁Griff	-11.6527
▁Horizont	-11.6527
▁Hängematte	-11.6527
▁Kaufhaus	-11.6527
▁KitchenAid	-11.6527
▁Marmor	-11.6527
▁Musician	-11.6527
▁Müllcontainer	-11.6527
▁Oldtimer	-11.6527
▁Pfeife	-11.6527
▁Pistole	-11.6527
▁Reparatur	-11.6527
▁Rollerskate	-11.6527
▁Schlucht	-11.6527
▁Smartphone	-11.6527
▁Spielsachen	-11.6527
▁Starbucks	-11.6527
▁Supermarkt	-11.6527
▁Vendor	-11.6527
▁Verschiedene	-11.6527
▁Videokamera	-11.6527
▁Wassersprenger	-11.6527
▁Wippe	-11.6527
▁Yellow	-11.6527
▁Zahnbürste	-11.6527
▁Zeichnung	-11.6527
▁Zeremonie	-11.6527
▁Zigarre	-11.6527
▁abandoned	-11.6527
▁accident	-11.6527
▁ascend	-11.6527
▁ausländische	-11.6527
▁babies	-11.6527
▁befindliche	-11.6527
▁blühende	-11.6527
▁briefcase	-11.6527
▁burgunderrote	-11.6527
▁campfire	-11.6527
▁communicat	-11.6527
▁complex	-11.6527
▁connect	-11.6527
▁cupcake	-11.6527
▁cycling	-11.6527
▁dekorative	-11.6527
▁destination	-11.6527
▁dinosaur	-11.6527
▁dirigier	-11.6527
▁easel	-11.6527
▁eingewickelt	-11.6527
▁einheimische	-11.6527
▁elaborate	-11.6527
▁erklimmt	-11.6527
▁establishment	-11.6527
▁faulenzen	-11.6527
▁geflochtene	-11.6527
▁gefrorene	-11.6527
▁gesenkte	-11.6527
▁greet	-11.6527
▁hammock	-11.6527
▁harmonica	-11.6527
▁hochhackige	-11.6527
▁hydrant	-11.6527
▁hüpfen	-11.6527
▁irgendwo	-11.6527
▁kanadische	-11.6527
▁krabbel	-11.6527
▁kämpft	-11.6527
▁laboratory	-11.6527
▁lohfarbene	-11.6527
▁maintenance	-11.6527
▁mittelgroße	-11.6527
▁powder	-11.6527
▁pyramid	-11.6527
▁rabbit	-11.6527
▁register	-11.6527
▁rührt	-11.6527
▁schwenken	-11.6527
▁skull	-11.6527
▁telefonieren	-11.6527
▁toothbrush	-11.6527
▁tournament	-11.6527
▁tracksuit	-11.6527
▁turkey	-11.6527
▁tuxedo	-11.6527
▁underground	-11.6527
▁vibrant	-11.6527
▁victory	-11.6527
▁warehouse	-11.6527
▁xylophone	-11.6527
▁öffnen	-11.6527
▁Buchstaben	-11.6527
▁Deere	-11.6527
▁Regal	-11.6527
▁Wildnis	-11.6527
▁chisel	-11.6527
▁darüber	-11.6527
▁mannequin	-11.6527
▁marble	-11.6527
▁shield	-11.6527
▁treadmill	-11.6527
rahmen	-11.6527
rosscountry	-11.6527
▁extend	-11.6527
▁gelegenen	-11.6527
▁gewinnen	-11.6527
▁jeep	-11.6527
▁sample	-11.6527
▁shoppers	-11.6527
▁year	-11.6527
vollständig	-11.6527
▁Eisenbahn	-11.6527
▁Hispan	-11.6527
▁Kaffeetasse	-11.6527
▁Sonnenlicht	-11.6527
▁handbag	-11.6527
▁Hosenträgern	-11.6527
▁Num	-11.6527
▁bib	-11.6527
▁troop	-11.6527
▁Indien	-11.6527
▁specta	-11.6527
Bahnstation	-11.6527
▁Rosen	-11.6527
terior	-11.6527
ußgängerübergang	-11.6527
▁Gurt	-11.6527
▁gespielt	-11.6527
safe	-11.6527
▁lernen	-11.6527
▁Chef	-11.6527
▁tarp	-11.6527
▁Blech	-11.6527
▁Life	-11.6527
▁bowtie	-11.6527
▁welche	-11.6527
▁Backsteinmauer	-11.6527
▁plank	-11.6527
league	-11.6527
zuheben	-11.6527
▁toilet	-11.6527
pfleg	-11.6527
▁Badekappe	-11.6527
eopard	-11.6527
▁flame	-11.6527
▁olive	-11.6527
kante	-11.6527
▁Oberhemd	-11.6527
▁Wanne	-11.6527
▁beißen	-11.6527
▁cash	-11.6527
ansicht	-11.6527
▁nun	-11.6527
▁scrubs	-11.6527
▁Unterhaltung	-11.6527
▁Geldautomaten	-11.6527
▁Billard	-11.6527
▁Braun	-11.6527
trennt	-11.6527
▁turtle	-11.6527
▁Schutzweste	-11.6527
▁rush	-11.6527
▁Sommertag	-11.6527
▁Militäruniform	-11.6527
▁sari	-11.6527
▁Grünfläche	-11.6527
▁sledding	-11.6527
▁Europa	-11.6527
▁Vorführung	-11.6527
▁Hochstuhl	-11.6527
▁Straßenszene	-11.6528
▁yell	-11.6528
inivan	-11.6528
schlendern	-11.6528
▁Besuch	-11.6528
▁Ziegelbau	-11.6528
▁Betonmauer	-11.6528
▁schlanke	-11.6528
▁Laufband	-11.6528
▁envi	-11.6528
▁Look	-11.6528
▁Popcorn	-11.6528
▁Neben	-11.6528
▁Spanish	-11.6529
▁mohawk	-11.6529
lammen	-11.6529
▁Straßenfest	-11.6529
▁Randstein	-11.6529
▁daytime	-11.6529
▁Feldhockey	-11.6529
▁Sporthalle	-11.653
▁Rod	-11.653
▁Klapp	-11.653
▁conductor	-11.653
▁stance	-11.653
▁Busses	-11.653
richter	-11.653
▁Holzbrett	-11.6531
▁hellgrünen	-11.6531
▁Schwein	-11.6531
▁Fischmarkt	-11.6532
▁Baseballfeld	-11.6532
▁shout	-11.6532
▁Mopp	-11.6532
orgi	-11.6533
▁Long	-11.6533
▁pony	-11.6533
▁cord	-11.6533
▁OP	-11.6534
▁Osten	-11.6534
▁ausgeschnittene	-11.6534
▁flock	-11.6534
▁Steinbank	-11.6534
▁Straßenrennen	-11.6535
▁cries	-11.6535
wiese	-11.6535
▁capture	-11.6536
▁Straßenbahn	-11.6536
▁stretches	-11.6536
▁rack	-11.6536
ällen	-11.6536
Bron	-11.6537
badet	-11.6538
▁Lenk	-11.654
▁company	-11.6541
▁projector	-11.6542
▁Stadtpark	-11.6542
zuhören	-11.6542
▁lion	-11.6542
▁Waffel	-11.6543
▁Wasch	-11.6543
▁segel	-11.6544
▁bridesmaid	-11.6544
▁baton	-11.6545
▁Kick	-11.6548
▁split	-11.655
gestürzte	-11.6552
▁Mich	-11.6554
▁herrliche	-11.6555
▁pig	-11.6556
foam	-11.6562
haltung	-11.6564
lender	-11.6566
▁tell	-11.6568
▁Big	-11.6569
▁logo	-11.6589
arbie	-11.659
ugging	-11.6598
▁sortiert	-11.6613
Rad	-11.6624
Turnier	-11.6629
▁indianische	-11.6644
zusehen	-11.6649
▁suck	-11.6678
▁complet	-11.6699
▁Fast	-11.6699
▁verleg	-11.6717
▁hellrote	-11.6723
▁poke	-11.6735
▁weigh	-11.6767
gefallene	-11.6809
▁türkise	-11.6815
▁entwe	-11.6821
▁hellgelbe	-11.6834
lanke	-11.6849
gabe	-11.6859
Grand	-11.6963
▁butt	-11.6966
cla	-11.6981
feier	-11.6988
▁Pri	-11.7123
▁Spitz	-11.7295
Fallschirmspring	-11.7311
▁mini	-11.7326
▁gefallen	-11.7431
▁Stadtszene	-11.7583
▁türkis	-11.7614
▁strik	-11.765
▁equ	-11.7771
▁Geste	-11.7776
graue	-11.7778
holt	-11.7855
▁Sommerkleid	-11.786
▁Häuser	-11.786
▁Palme	-11.7861
skier	-11.7863
plane	-11.7864
▁organ	-11.7864
▁Farb	-11.7868
tunnel	-11.7869
break	-11.787
Trikot	-11.787
Wagen	-11.787
shape	-11.787
Park	-11.787
camera	-11.787
durch	-11.7871
▁weld	-11.7875
The	-11.7879
statt	-11.7887
▁bring	-11.7903
▁fog	-11.7907
unterricht	-11.7912
▁Gleis	-11.7916
▁bärtige	-11.7919
▁Schnu	-11.792
▁zuguck	-11.7924
körper	-11.7928
arents	-11.7929
time	-11.7932
▁flow	-11.7939
gestreckt	-11.7943
▁slip	-11.7947
▁Flag	-11.7951
onfetti	-11.7953
▁Euro	-11.7953
ustomers	-11.7953
runette	-11.7953
▁Halb	-11.7954
embers	-11.7954
asino	-11.7954
stadt	-11.7954
▁Plüsch	-11.7955
gewöhnlich	-11.7955
▁Möbel	-11.7955
▁Fliesen	-11.7955
tänzer	-11.7955
cept	-11.7955
▁Löwen	-11.7955
▁Mickey	-11.7955
▁Eisschnelll	-11.7955
▁Felsformation	-11.7955
▁Leichtathlet	-11.7955
▁conveni	-11.7955
▁geflie	-11.7955
Gesichtsausdruck	-11.7955
Guitar	-11.7955
Kämpfer	-11.7955
Vogelperspektive	-11.7955
blatt	-11.7955
bläser	-11.7955
bühne	-11.7955
grube	-11.7955
ilitärangehörige	-11.7955
mittelalterliche	-11.7955
plattform	-11.7955
schlange	-11.7955
schlitten	-11.7955
▁Alkohol	-11.7955
▁Barkeeper	-11.7955
▁Baskenmütze	-11.7955
▁Baumstämmen	-11.7955
▁Begriff	-11.7955
▁Betonstufen	-11.7955
▁Blazer	-11.7955
▁Brautjungfern	-11.7955
▁Broschüre	-11.7955
▁Bücherregal	-11.7955
▁Demonstration	-11.7955
▁Dinosaurier	-11.7955
▁Element	-11.7955
▁Ereignis	-11.7955
▁Felsklippe	-11.7955
▁Friedenszeichen	-11.7955
▁Geldbeutel	-11.7955
▁Gesellschaft	-11.7955
▁Getreide	-11.7955
▁Gewicht	-11.7955
▁Gletscher	-11.7955
▁Habseligkeiten	-11.7955
▁Highschool	-11.7955
▁Huhn	-11.7955
▁Information	-11.7955
▁Kaninchen	-11.7955
▁Kunstgalerie	-11.7955
▁Können	-11.7955
▁Lautsprecher	-11.7955
▁Mülltüte	-11.7955
▁Nachmittag	-11.7955
▁Ochsen	-11.7955
▁Pinsel	-11.7955
▁Pizzeria	-11.7955
▁SUV	-11.7955
▁Schwebebalken	-11.7955
▁Staffelei	-11.7955
▁Stammeskleidung	-11.7955
▁Tankstelle	-11.7955
▁Tauziehen	-11.7955
▁Tempel	-11.7955
▁Terrier	-11.7955
▁Toiletten	-11.7955
▁Töpferware	-11.7955
▁Ultimate	-11.7955
▁Vegas	-11.7955
▁Wandmalerei	-11.7955
▁Zuhörer	-11.7955
▁Züge	-11.7955
▁activities	-11.7955
▁aufgeblasen	-11.7955
▁aufgesetzte	-11.7955
▁bleiben	-11.7955
▁bleibt	-11.7955
▁bodysuit	-11.7955
▁buffet	-11.7955
▁bulldozer	-11.7955
▁cathedral	-11.7955
▁citizen	-11.7955
▁competitive	-11.7955
▁double	-11.7955
▁embrace	-11.7955
▁exercising	-11.7955
▁expans	-11.7955
▁faulenzt	-11.7955
▁fedora	-11.7955
▁gepolsterte	-11.7955
▁gesichert	-11.7955
▁gießen	-11.7955
▁grüß	-11.7955
▁harbor	-11.7955
▁hochzuklettern	-11.7955
▁holiday	-11.7955
▁kümmern	-11.7955
▁level	-11.7955
▁lädt	-11.7955
▁marsh	-11.7955
▁mascot	-11.7955
▁meadow	-11.7955
▁nipp	-11.7955
▁pancake	-11.7955
▁professionell	-11.7955
▁reception	-11.7955
▁schleift	-11.7955
▁scientist	-11.7955
▁seafood	-11.7955
▁skydiving	-11.7955
▁slacks	-11.7955
▁snorkel	-11.7955
▁somewhere	-11.7955
▁steuert	-11.7955
▁supermarket	-11.7955
▁tablecloth	-11.7955
▁terminal	-11.7955
▁transit	-11.7955
▁trophy	-11.7955
▁trottet	-11.7955
▁unbekannte	-11.7955
▁verschwommen	-11.7955
▁wilderness	-11.7955
▁zahlreiche	-11.7955
▁zielt	-11.7955
▁zombie	-11.7955
▁zugewandt	-11.7955
▁Bagger	-11.7955
▁Dschungel	-11.7955
▁Einrichtung	-11.7955
▁Fleck	-11.7955
▁Preis	-11.7955
▁Speisekarte	-11.7955
▁Violett	-11.7955
▁Zitrone	-11.7955
▁gehüllt	-11.7955
▁major	-11.7955
▁patrioti	-11.7955
▁polish	-11.7955
▁report	-11.7955
▁strahlend	-11.7955
▁temple	-11.7955
ufdruck	-11.7955
▁Filz	-11.7955
▁Graben	-11.7955
▁Pfote	-11.7955
▁Schwester	-11.7955
▁beeindrucken	-11.7955
▁beendet	-11.7955
▁buckelnde	-11.7955
▁extreme	-11.7955
▁hackt	-11.7955
▁kaputte	-11.7955
▁lackiert	-11.7955
▁lush	-11.7955
▁mattress	-11.7955
▁maybe	-11.7955
▁plow	-11.7955
▁regelt	-11.7955
▁tumbl	-11.7955
▁videotap	-11.7955
▁Schmink	-11.7955
▁bongo	-11.7955
Aufkleber	-11.7955
ashore	-11.7955
räumen	-11.7955
▁backseat	-11.7955
▁leitet	-11.7955
▁steinerne	-11.7955
cient	-11.7955
fällig	-11.7955
spiegel	-11.7955
▁Bongo	-11.7955
▁broad	-11.7955
▁richtig	-11.7955
gegend	-11.7955
▁Gesichtsmaske	-11.7955
▁Zebrastreifen	-11.7955
▁expos	-11.7955
▁Island	-11.7955
▁Säge	-11.7955
nblick	-11.7955
▁downhill	-11.7955
▁Versuch	-11.7955
▁Pult	-11.7955
▁abgesperrt	-11.7955
▁Innenhof	-11.7955
▁puppet	-11.7955
▁Modellflugzeug	-11.7955
▁Neon	-11.7955
▁religiöse	-11.7955
▁trotting	-11.7955
gierig	-11.7955
ordnet	-11.7955
▁miniature	-11.7955
▁abgedunkelte	-11.7955
▁Töpfe	-11.7955
▁weinende	-11.7955
▁visor	-11.7955
▁zip	-11.7955
▁Gokart	-11.7955
▁Pflasterstraße	-11.7955
▁resort	-11.7955
▁historic	-11.7955
▁interessante	-11.7955
▁mounted	-11.7955
▁Großstadt	-11.7955
▁Ruderboot	-11.7955
▁sidelines	-11.7955
faltet	-11.7955
▁Kanal	-11.7955
▁sister	-11.7955
▁Innenraum	-11.7956
▁Felsblock	-11.7956
▁mexikanische	-11.7956
eval	-11.7956
▁mule	-11.7956
▁Renaissance	-11.7956
▁paw	-11.7956
▁dessert	-11.7956
▁Schuss	-11.7956
▁Backsteinstraße	-11.7956
trümpfe	-11.7956
▁gefärbte	-11.7956
▁genau	-11.7956
▁zuhause	-11.7956
▁geschrieben	-11.7956
▁Seitenlinie	-11.7956
▁Kuss	-11.7956
▁Tutu	-11.7956
▁oil	-11.7956
▁Fassade	-11.7956
willig	-11.7956
▁search	-11.7956
Anzeige	-11.7956
▁crops	-11.7956
▁Sims	-11.7956
▁Ringkampf	-11.7956
▁lanterns	-11.7956
▁Torbogen	-11.7956
▁oar	-11.7956
▁Kinn	-11.7957
▁Schauspieler	-11.7957
▁Geländefahrzeug	-11.7957
▁mehr	-11.7957
▁Betonplatte	-11.7957
▁winken	-11.7957
▁Krone	-11.7957
▁casino	-11.7957
▁Konfetti	-11.7957
▁demonstration	-11.7957
▁Radio	-11.7957
▁Wintertag	-11.7958
▁Fitness	-11.7958
▁social	-11.7958
▁message	-11.7958
▁Vorstellung	-11.7958
▁weißhaarige	-11.7958
ffnung	-11.7958
▁Dark	-11.7958
▁Glastür	-11.7959
▁Runde	-11.7959
▁Aufschlag	-11.7959
▁starring	-11.7959
▁clutch	-11.796
▁balg	-11.796
▁Berglandschaft	-11.796
atik	-11.796
▁spend	-11.796
▁Stelle	-11.796
▁sunhat	-11.796
▁skyline	-11.796
▁woodland	-11.7961
▁Rockband	-11.7961
▁hinweg	-11.7961
▁Jew	-11.7961
legged	-11.7961
▁getragen	-11.7962
▁rustic	-11.7962
▁Leben	-11.7962
▁Basketballfeld	-11.7963
▁shack	-11.7963
▁binden	-11.7963
▁bump	-11.7963
▁Footballfeld	-11.7964
▁hochgehoben	-11.7964
▁send	-11.7965
gebung	-11.7971
schenkt	-11.7971
▁hour	-11.7971
Down	-11.7972
▁Wort	-11.7973
▁türkisfarbene	-11.7974
gerollt	-11.7975
chief	-11.7976
lipper	-11.7976
▁Kartenspiel	-11.7977
brot	-11.7978
geräum	-11.798
▁Make	-11.7982
▁blind	-11.7982
ution	-11.7989
▁award	-11.7991
▁Dart	-11.7993
▁dunkelgrüne	-11.8004
▁schreiende	-11.8005
spekt	-11.8011
▁squ	-11.8013
▁panel	-11.8019
▁puste	-11.8025
Love	-11.8026
▁farb	-11.8033
You	-11.8048
▁spik	-11.8082
klasse	-11.8111
BH	-11.8126
equi	-11.8142
▁damage	-11.8185
kommende	-11.8235
getränk	-11.8349
gefähr	-11.8446
eitlich	-11.8563
capp	-11.8585
rutscht	-11.8601
▁Radrenn	-11.8625
▁stretch	-11.8626
storm	-11.8762
Oh	-11.8781
▁geschlagen	-11.8852
trio	-11.893
aube	-11.8932
▁build	-11.8978
ücke	-11.9023
wheeler	-11.9059
▁angle	-11.9266
▁Freizeit	-11.9384
▁pigeon	-11.945
▁etwa	-11.9455
hül	-11.9476
arasailing	-11.9481
trainer	-11.9493
▁klein	-11.9503
▁faci	-11.9522
▁Wände	-11.9528
hockey	-11.9532
öcken	-11.9533
flute	-11.9535
schaufel	-11.9535
student	-11.9536
position	-11.9536
steigt	-11.9536
finish	-11.9536
Konzert	-11.9536
held	-11.9536
filled	-11.9537
outfit	-11.9537
schneidet	-11.9537
Auto	-11.9537
▁pray	-11.9537
high	-11.9544
▁defend	-11.9553
wettkampf	-11.9566
▁neb	-11.9589
▁Pho	-11.9593
zeichnung	-11.9602
▁attach	-11.9602
wache	-11.9604
▁ceremon	-11.9607
nsammlung	-11.9612
flugzeug	-11.9613
ohren	-11.9616
szene	-11.9616
oddler	-11.9617
uzzle	-11.9618
änteln	-11.9619
eautiful	-11.962
ilitary	-11.962
eworfen	-11.962
kappe	-11.962
lantern	-11.9621
▁Schreib	-11.9621
udiert	-11.9621
▁Spazier	-11.9621
sportler	-11.9621
▁Wild	-11.9622
aufnahme	-11.9622
▁inflat	-11.9622
gility	-11.9622
komplex	-11.9622
motiv	-11.9622
▁Greyhound	-11.9622
▁Gänse	-11.9622
▁Kampfkunst	-11.9622
▁Orient	-11.9622
▁Spiderman	-11.9622
▁Vorlesung	-11.9622
▁Zauber	-11.9622
▁civil	-11.9622
▁pflüg	-11.9622
▁regenbogenfarb	-11.9622
Magazin	-11.9622
amurai	-11.9622
ariachi	-11.9622
brunnen	-11.9622
bündel	-11.9622
entgegengesetzte	-11.9622
gedruckt	-11.9622
geführt	-11.9622
gerahmte	-11.9622
ietnames	-11.9622
indernisparcours	-11.9622
kapelle	-11.9622
leidenschaftlich	-11.9622
oberfläche	-11.9622
pflasterstraße	-11.9622
plakat	-11.9622
schaffen	-11.9622
stronaut	-11.9622
usdruck	-11.9622
vailable	-11.9622
werfer	-11.9622
▁Aquarium	-11.9622
▁Aufmerksamkeit	-11.9622
▁Berggipfel	-11.9622
▁Bleistift	-11.9622
▁Blumenstrauß	-11.9622
▁Bulldozer	-11.9622
▁Bänder	-11.9622
▁Bürste	-11.9622
▁Chirurg	-11.9622
▁Cowgirl	-11.9622
▁Cricket	-11.9622
▁Digitalkamera	-11.9622
▁Einkaufspassage	-11.9622
▁Fernrohr	-11.9622
▁Fingernägel	-11.9622
▁Fitnessstudio	-11.9622
▁Frühstück	-11.9622
▁Handgelenk	-11.9622
▁Hochzeitstorte	-11.9622
▁Hollister	-11.9622
▁Hubschrauber	-11.9622
▁Hydranten	-11.9622
▁Hörsaal	-11.9622
▁Hüpfburg	-11.9622
▁Joggen	-11.9622
▁Karneval	-11.9622
▁Kathedrale	-11.9622
▁Kimono	-11.9622
▁Kopftücher	-11.9622
▁Küchentresen	-11.9622
▁Labrador	-11.9622
▁Leoparden	-11.9622
▁Lieblings	-11.9622
▁Liegestühlen	-11.9622
▁Limonade	-11.9622
▁Limousine	-11.9622
▁Lippenstift	-11.9622
▁Maulkörben	-11.9622
▁Meeresfrüchte	-11.9622
▁Mega	-11.9622
▁Minigolf	-11.9622
▁Muschel	-11.9622
▁Nachtclub	-11.9622
▁Oxford	-11.9622
▁Partner	-11.9622
▁Professor	-11.9622
▁Promenade	-11.9622
▁Pyramide	-11.9622
▁Rasenmäher	-11.9622
▁Reporter	-11.9622
▁Rückwärtssalto	-11.9622
▁Sackhüpfen	-11.9622
▁Schlepp	-11.9622
▁Schädel	-11.9622
▁Schärpe	-11.9622
▁Seilspringen	-11.9622
▁Senioren	-11.9622
▁Spielmannszug	-11.9622
▁Stabhochsprung	-11.9622
▁Steuer	-11.9622
▁Strandpromenade	-11.9622
▁Superman	-11.9622
▁Textnachricht	-11.9622
▁Toyota	-11.9622
▁Wasserfontäne	-11.9622
▁Wasserpistole	-11.9622
▁Weihnachten	-11.9622
▁Wunderkerze	-11.9622
▁Zoo	-11.9622
▁Zuckerwatte	-11.9622
▁Zutaten	-11.9622
▁adventur	-11.9622
▁akrobatische	-11.9622
▁alcohol	-11.9622
▁ausgestopfte	-11.9622
▁barricade	-11.9622
▁begutachten	-11.9622
▁beschädigte	-11.9622
▁besetzte	-11.9622
▁breast	-11.9622
▁breath	-11.9622
▁brochure	-11.9622
▁bronco	-11.9622
▁cardigan	-11.9622
▁clarinet	-11.9622
▁coconut	-11.9622
▁competitor	-11.9622
▁cremefarbene	-11.9622
▁dreckige	-11.9622
▁einkaufen	-11.9622
▁einzufangen	-11.9622
▁elegant	-11.9622
▁enclos	-11.9622
▁erwischt	-11.9622
▁ethnische	-11.9622
▁frown	-11.9622
▁füttern	-11.9622
▁gemütlich	-11.9622
▁geometri	-11.9622
▁glacier	-11.9622
▁grown	-11.9622
▁hamburger	-11.9622
▁irgendetwas	-11.9622
▁kaukasische	-11.9622
▁kehren	-11.9622
▁kiosk	-11.9622
▁kommunizier	-11.9622
▁komplizierte	-11.9622
▁lebhaft	-11.9622
▁lipstick	-11.9622
▁liquor	-11.9622
▁lustige	-11.9622
▁magnif	-11.9622
▁niedliche	-11.9622
▁nightclub	-11.9622
▁noodle	-11.9622
▁occup	-11.9622
▁occurr	-11.9622
▁olympische	-11.9622
▁operation	-11.9622
▁ornament	-11.9622
▁pflückt	-11.9622
▁plush	-11.9622
▁poncho	-11.9622
▁professor	-11.9622
▁progress	-11.9622
▁quad	-11.9622
▁question	-11.9622
▁ravine	-11.9622
▁razor	-11.9622
▁recreat	-11.9622
▁relay	-11.9622
▁sausage	-11.9622
▁schattige	-11.9622
▁scissors	-11.9622
▁scratch	-11.9622
▁seesaw	-11.9622
▁senkrecht	-11.9622
▁servieren	-11.9622
▁sparkler	-11.9622
▁spatula	-11.9622
▁stöber	-11.9622
▁submerge	-11.9622
▁suburb	-11.9622
▁sunshine	-11.9622
▁supervis	-11.9622
▁symbol	-11.9622
▁trocknet	-11.9622
▁umgedrehte	-11.9622
▁verfolgen	-11.9622
▁wineglasses	-11.9622
▁wolkige	-11.9622
▁zeichnen	-11.9622
▁üppig	-11.9622
Country	-11.9622
Olympia	-11.9622
produkte	-11.9622
▁Amboss	-11.9622
▁Berlin	-11.9622
▁Capri	-11.9622
▁Claus	-11.9622
▁Empfang	-11.9622
▁Landkarte	-11.9622
▁Nadelstreifen	-11.9622
▁Ocean	-11.9622
▁Plane	-11.9622
▁SMS	-11.9622
▁Schloss	-11.9622
▁Tischtennis	-11.9622
▁befrei	-11.9622
▁bohrt	-11.9622
▁brindle	-11.9622
▁curious	-11.9622
▁normal	-11.9622
▁socializing	-11.9622
▁windsurf	-11.9622
Krieg	-11.9622
sponsor	-11.9622
▁Gentlem	-11.9622
▁Keks	-11.9622
▁Ohrhörer	-11.9622
▁Stände	-11.9622
▁bronze	-11.9622
▁cycle	-11.9622
▁defens	-11.9622
▁durchsucht	-11.9622
▁talent	-11.9622
▁wäre	-11.9622
▁Milch	-11.9622
▁radio	-11.9622
anzeige	-11.9622
▁Wii	-11.9622
▁challeng	-11.9622
▁eager	-11.9622
▁husband	-11.9622
▁strickt	-11.9622
▁Garden	-11.9622
▁kostümierte	-11.9622
▁Front	-11.9622
▁Haarschnitt	-11.9622
▁Krug	-11.9622
▁bricht	-11.9622
▁flaming	-11.9622
▁freut	-11.9622
▁proud	-11.9622
▁angeleint	-11.9622
▁musizier	-11.9622
▁Wanderweg	-11.9622
▁milk	-11.9622
▁sweet	-11.9622
▁utili	-11.9622
▁fireworks	-11.9622
▁platziert	-11.9622
▁Dekorationen	-11.9622
▁intensiv	-11.9622
▁poliert	-11.9622
▁Salat	-11.9622
▁badge	-11.9622
▁vault	-11.9622
▁Haut	-11.9622
üstung	-11.9622
▁Lakers	-11.9622
▁Fahrgäste	-11.9622
▁information	-11.9622
rgert	-11.9622
▁Polizeibeamte	-11.9622
wärme	-11.9622
▁Durchgang	-11.9622
▁accept	-11.9622
▁piercing	-11.9622
▁sash	-11.9622
▁Bordsteinkante	-11.9622
▁Gray	-11.9622
abhängen	-11.9622
▁Deli	-11.9622
▁chunk	-11.9622
▁Burg	-11.9622
▁Haken	-11.9622
▁navigier	-11.9622
▁Hasen	-11.9622
▁Krankenhausbett	-11.9622
pullover	-11.9622
▁Spazierstock	-11.9622
▁Camper	-11.9622
▁Steg	-11.9622
▁Minne	-11.9622
▁Kühe	-11.9622
▁Open	-11.9622
▁Schotterstraße	-11.9622
▁Schwimmflügeln	-11.9622
▁Geschichte	-11.9622
▁Wettlauf	-11.9622
▁falsch	-11.9622
▁master	-11.9622
▁Kleinbus	-11.9622
▁patrol	-11.9622
▁Möbelstück	-11.9622
▁knitting	-11.9622
▁Essenswagen	-11.9622
▁verrückt	-11.9622
▁Schotterweg	-11.9622
ketch	-11.9622
▁cowgirl	-11.9622
▁Dreh	-11.9622
▁applaudi	-11.9622
▁Motorboot	-11.9623
▁Fischerboot	-11.9623
sessel	-11.9623
▁Fußgängerbrücke	-11.9623
▁goatee	-11.9623
schiff	-11.9623
▁Außenseite	-11.9623
▁müde	-11.9623
▁Ebene	-11.9623
▁Ausflug	-11.9623
▁Kamin	-11.9623
▁bequem	-11.9623
▁limb	-11.9623
▁Dunkeln	-11.9623
aufführung	-11.9623
▁belly	-11.9623
▁kurzhaarige	-11.9623
▁Schwimmhilfe	-11.9623
ühlt	-11.9623
▁Bikinioberteil	-11.9623
▁puzzle	-11.9623
▁kontrollier	-11.9623
▁Spül	-11.9623
▁archway	-11.9623
▁schält	-11.9623
▁Ausschau	-11.9624
▁Innere	-11.9624
▁teilnimmt	-11.9624
▁zone	-11.9624
▁Golfplatz	-11.9624
▁Schwanz	-11.9624
schale	-11.9624
▁assistant	-11.9624
▁awning	-11.9624
▁Metallzaun	-11.9624
helfe	-11.9624
▁rise	-11.9625
▁drift	-11.9625
▁BMW	-11.9625
▁massive	-11.9625
▁wonder	-11.9625
▁Taucheranzug	-11.9625
▁flood	-11.9625
töpfe	-11.9625
stride	-11.9625
▁protestieren	-11.9626
▁Zune	-11.9626
▁instructor	-11.9627
leute	-11.9627
▁react	-11.9627
▁karge	-11.9627
▁Angestellte	-11.9628
▁pump	-11.9629
▁Hacke	-11.9629
▁vermu	-11.963
itness	-11.9632
▁ripp	-11.9635
achete	-11.9636
▁Wartungsarbeite	-11.9636
gäste	-11.9638
▁Famil	-11.964
▁Comic	-11.9645
▁brä	-11.9646
lötz	-11.9647
▁perche	-11.966
▁bunn	-11.9673
▁grip	-11.9677
▁wipe	-11.9686
Free	-11.9689
▁Messe	-11.9692
▁Schere	-11.9694
▁hochkletter	-11.9697
rubs	-11.9708
ennis	-11.9713
▁chemi	-11.9718
▁dunkelbraune	-11.9738
organis	-11.9759
risk	-11.98
ould	-11.98
icherheitswesten	-11.9816
▁wicke	-11.9851
Jump	-11.9856
Freizeitkleidung	-11.9865
gestell	-11.9922
haps	-11.9946
gericht	-11.9973
▁Loc	-11.9987
▁seltsam	-12.0054
▁Kla	-12.0056
zenerie	-12.0115
harp	-12.0129
chaufensterpuppe	-12.0151
eckige	-12.0155
foli	-12.0314
ivid	-12.0348
lpen	-12.0399
lbernen	-12.058
streu	-12.0593
completed	-12.0681
▁gesäumt	-12.0712
▁Golfspiel	-12.0729
chaufensterfront	-12.0775
▁Scheinwerfer	-12.0901
▁pflanz	-12.1005
puppe	-12.1011
lance	-12.1073
▁barbecu	-12.1074
hawk	-12.1195
▁slop	-12.1196
frikanische	-12.1208
▁hübsch	-12.1315
▁tätowier	-12.1325
▁Aktivität	-12.1332
klettern	-12.1446
▁bagpipe	-12.1448
▁Training	-12.1451
▁pedestrian	-12.1451
▁backward	-12.1452
▁älter	-12.1464
skating	-12.1507
langen	-12.1517
fertige	-12.1525
▁Büsche	-12.1527
▁bewölkte	-12.1528
▁Kerze	-12.1528
▁Rucksäcke	-12.1528
▁Speise	-12.1528
Mitarbeiter	-12.1534
Tattoo	-12.1535
monitor	-12.1535
leckt	-12.1535
Werbung	-12.1535
Ausrüstung	-12.1536
Tunnel	-12.1536
festival	-12.1536
Computer	-12.1537
Restaurant	-12.1537
Rennen	-12.1537
restaurant	-12.1537
Fahrrad	-12.1537
herum	-12.1538
karierte	-12.1538
bull	-12.1539
zieh	-12.1562
▁brid	-12.157
geschnittene	-12.157
flieger	-12.1573
▁Patient	-12.1583
räumt	-12.1586
▁Pitch	-12.1592
▁arrange	-12.16
▁bewunder	-12.16
▁multicolor	-12.1602
▁curl	-12.1609
raktor	-12.1612
orhüter	-12.1612
opcorn	-12.1619
trikot	-12.1619
loud	-12.162
musik	-12.162
▁Schotter	-12.1621
▁synchron	-12.1621
▁Pflaster	-12.1621
estrian	-12.1621
motorrad	-12.1621
dunkelte	-12.1621
▁Durch	-12.1621
▁Bürger	-12.1622
▁Reklame	-12.1622
▁chil	-12.1622
echani	-12.1622
▁gespreizt	-12.1622
▁rustikal	-12.1622
▁tread	-12.1622
▁Doktor	-12.1622
▁Irokesen	-12.1622
▁Karikatur	-12.1622
▁Truthahn	-12.1622
▁bevölker	-12.1622
▁errichtet	-12.1622
▁getrocknet	-12.1622
▁nibbl	-12.1622
▁remote	-12.1622
▁schräg	-12.1622
▁umgekippt	-12.1622
Maskottchen	-12.1622
Metallgegenstand	-12.1622
Offizier	-12.1622
Tintenfisch	-12.1622
eisenbahn	-12.1622
kissen	-12.1622
quaint	-12.1622
rincess	-12.1622
rädrige	-12.1622
röße	-12.1622
schaftskollegen	-12.1622
schleudert	-12.1622
sgesellschaft	-12.1622
stöckige	-12.1622
superman	-12.1622
terrasse	-12.1622
unruhige	-12.1622
ätzchen	-12.1622
ürfel	-12.1622
▁Absatzschuhe	-12.1622
▁Abschluss	-12.1622
▁Absperrband	-12.1622
▁Abstammung	-12.1622
▁Bauernhof	-12.1622
▁Bedienung	-12.1622
▁Betrieb	-12.1622
▁Coffee	-12.1622
▁Company	-12.1622
▁Cyclist	-12.1622
▁Dancers	-12.1622
▁Denkmal	-12.1622
▁Dessert	-12.1622
▁Dirigent	-12.1622
▁Dutzend	-12.1622
▁Elektri	-12.1622
▁Endzone	-12.1622
▁Fahrradreifen	-12.1622
▁Friedhof	-12.1622
▁Fässer	-12.1622
▁Führung	-12.1622
▁Garagentor	-12.1622
▁Gemeinde	-12.1622
▁Halfpipe	-12.1622
▁Handtücher	-12.1622
▁Huckepack	-12.1622
▁Husky	-12.1622
▁Höhle	-12.1622
▁Jetski	-12.1622
▁Kastenwagen	-12.1622
▁Kitesurf	-12.1622
▁Klarinette	-12.1622
▁Kleinigkeit	-12.1622
▁Kletterwand	-12.1622
▁Kongress	-12.1622
▁Matratze	-12.1622
▁Mehl	-12.1622
▁Männliche	-12.1622
▁Operationssaal	-12.1622
▁Orangensaft	-12.1622
▁Photographer	-12.1622
▁Poncho	-12.1622
▁Programm	-12.1622
▁Roboter	-12.1622
▁Schusswaffe	-12.1622
▁Schwierigkeiten	-12.1622
▁Soldier	-12.1622
▁Sprache	-12.1622
▁Sprühfarbe	-12.1622
▁Staffellauf	-12.1622
▁Städtische	-12.1622
▁Surfen	-12.1622
▁Symbol	-12.1622
▁Söhne	-12.1622
▁Tauchausrüstung	-12.1622
▁Toreinfahrt	-12.1622
▁Tunik	-12.1622
▁Türeingang	-12.1622
▁UNICEF	-12.1622
▁Vorbereitung	-12.1622
▁Werkzeuggürtel	-12.1622
▁Wheelie	-12.1622
▁Wissenschaftler	-12.1622
▁Wälder	-12.1622
▁affect	-12.1622
▁automobile	-12.1622
▁backstroke	-12.1622
▁beaufsichtigt	-12.1622
▁befestigen	-12.1622
▁befragt	-12.1622
▁betrunken	-12.1622
▁blindfolded	-12.1622
▁blossom	-12.1622
▁bookshelf	-12.1622
▁bracelet	-12.1622
▁cartwheel	-12.1622
▁champagne	-12.1622
▁community	-12.1622
▁consult	-12.1622
▁contemplat	-12.1622
▁cruis	-12.1622
▁curren	-12.1622
▁curtain	-12.1622
▁dafür	-12.1622
▁demonstrier	-12.1622
▁depict	-12.1622
▁detail	-12.1622
▁dolphin	-12.1622
▁dramatic	-12.1622
▁elbow	-12.1622
▁erzielen	-12.1622
▁erzählt	-12.1622
▁excitement	-12.1622
▁eyeglasses	-12.1622
▁fingernail	-12.1622
▁fireplace	-12.1622
▁funktioniert	-12.1622
▁geschnitzte	-12.1622
▁gestaltete	-12.1622
▁gesteckt	-12.1622
▁gewonnen	-12.1622
▁identical	-12.1622
▁irgendwelche	-12.1622
▁jackhammer	-12.1622
▁javelin	-12.1622
▁jüdische	-12.1622
▁klassische	-12.1622
▁knappe	-12.1622
▁kniehohe	-12.1622
▁lokale	-12.1622
▁merchant	-12.1622
▁monopoly	-12.1622
▁obdachlose	-12.1622
▁pacifier	-12.1622
▁participant	-12.1622
▁passerby	-12.1622
▁peacock	-12.1622
▁possession	-12.1622
▁primitiv	-12.1622
▁pursu	-12.1622
▁quilt	-12.1622
▁refresh	-12.1622
▁rehears	-12.1622
▁represent	-12.1622
▁rowboat	-12.1622
▁scantily	-12.1622
▁shelves	-12.1622
▁stecken	-12.1622
▁stolpert	-12.1622
▁stämmige	-12.1622
▁sweatsuit	-12.1622
▁süße	-12.1622
▁tambourine	-12.1622
▁tiara	-12.1622
▁tightrope	-12.1622
▁unidentifi	-12.1622
▁unknown	-12.1622
▁vegetation	-12.1622
▁verkehrsreiche	-12.1622
▁verloren	-12.1622
▁verteidigen	-12.1622
▁volunteer	-12.1622
▁watercraft	-12.1622
▁zerbrochene	-12.1622
▁übergroße	-12.1622
▁überwiegend	-12.1622
Amerika	-12.1622
auslage	-12.1622
gefunden	-12.1622
jungf	-12.1622
owerpoint	-12.1622
program	-12.1622
▁Aufwärmen	-12.1622
▁Ballbesitz	-12.1622
▁Buffet	-12.1622
▁Business	-12.1622
▁Gabel	-12.1622
▁Grouch	-12.1622
▁Hochzeitsfeier	-12.1622
▁Kniestrümpfe	-12.1622
▁Krabbe	-12.1622
▁Lobby	-12.1622
▁Material	-12.1622
▁Riemen	-12.1622
▁Schaumbad	-12.1622
▁Schildkröte	-12.1622
▁Schokolade	-12.1622
▁Schottenr	-12.1622
▁Säcke	-12.1622
▁Weingläsern	-12.1622
▁Zehen	-12.1622
▁Zombie	-12.1622
▁apparatus	-12.1622
▁asphalt	-12.1622
▁cockpit	-12.1622
▁drunk	-12.1622
▁escape	-12.1622
▁exciting	-12.1622
▁graduati	-12.1622
▁heißt	-12.1622
▁moos	-12.1622
▁respond	-12.1622
▁robot	-12.1622
▁rötliche	-12.1622
▁shoeshine	-12.1622
▁terrier	-12.1622
▁weave	-12.1622
▁zebra	-12.1622
Kunstausstellung	-12.1622
album	-12.1622
gerissen	-12.1622
▁Esszimmer	-12.1622
▁Gäste	-12.1622
▁Kayak	-12.1622
▁Unterricht	-12.1622
▁canopy	-12.1622
▁carousel	-12.1622
▁clock	-12.1622
▁deutet	-12.1622
▁hechtet	-12.1622
▁kriech	-12.1622
▁passionate	-12.1622
▁priest	-12.1622
▁salad	-12.1622
▁stoßen	-12.1622
Twister	-12.1622
ziegel	-12.1622
▁Sturz	-12.1622
▁happen	-12.1622
▁husky	-12.1622
▁peddl	-12.1622
▁sanft	-12.1622
▁verliert	-12.1622
kragen	-12.1622
uvre	-12.1622
▁Haupt	-12.1622
▁Suppe	-12.1622
▁bergige	-12.1622
▁fluores	-12.1622
balken	-12.1622
betrieben	-12.1622
hnachtsgeschenke	-12.1622
schonern	-12.1622
sänger	-12.1622
triebs	-12.1622
▁Kutsche	-12.1622
▁Tennisbälle	-12.1622
▁abgewandt	-12.1622
▁campsite	-12.1622
▁gemischte	-12.1622
▁leckere	-12.1622
▁metallic	-12.1622
▁slab	-12.1622
gerüst	-12.1622
▁Lappen	-12.1622
▁Schanze	-12.1622
▁salut	-12.1622
▁Kleidungsstücke	-12.1622
▁Riesen	-12.1622
▁garment	-12.1622
▁sparse	-12.1622
▁Kanone	-12.1622
▁Stoß	-12.1622
▁cinder	-12.1622
penguin	-12.1622
▁Diadem	-12.1622
▁bettelt	-12.1622
▁operier	-12.1622
▁stricken	-12.1622
Motiv	-12.1622
▁impress	-12.1622
▁jogger	-12.1622
▁winzige	-12.1622
▁Harfe	-12.1622
▁Hängebrücke	-12.1622
▁Power	-12.1622
bude	-12.1622
▁Stachel	-12.1622
▁pride	-12.1622
▁retai	-12.1622
Goalie	-12.1622
▁verteilen	-12.1622
▁whistle	-12.1622
lowly	-12.1622
▁Lead	-12.1622
▁lenkt	-12.1622
umgebung	-12.1622
▁Chips	-12.1622
▁Ruinen	-12.1622
▁Vieh	-12.1622
▁Trocken	-12.1622
▁Faust	-12.1622
▁Tief	-12.1622
▁squirt	-12.1622
▁Balletttänzer	-12.1622
dehnt	-12.1622
schüttet	-12.1622
taught	-12.1622
▁Kleinstadt	-12.1622
▁arabische	-12.1622
▁meditat	-12.1622
▁Blüte	-12.1622
▁snake	-12.1622
Objektiv	-12.1622
▁cartoon	-12.1622
▁übersäte	-12.1622
▁blass	-12.1622
▁interess	-12.1622
▁gepflegte	-12.1622
Kitty	-12.1622
▁trommelt	-12.1622
source	-12.1622
wanderung	-12.1622
schwarm	-12.1622
▁Auszeichnung	-12.1622
▁Fliesenboden	-12.1622
kuppe	-12.1622
▁Hafengebiet	-12.1622
▁strum	-12.1622
▁bummel	-12.1623
▁trap	-12.1623
▁Centr	-12.1623
ngesicht	-12.1623
▁Indische	-12.1623
▁answer	-12.1623
▁ruins	-12.1623
▁peel	-12.1623
▁gedeckt	-12.1623
▁zupft	-12.1623
▁hedge	-12.1623
▁Lehm	-12.1623
▁lausch	-12.1623
famili	-12.1623
leece	-12.1623
▁strawberr	-12.1623
bieten	-12.1623
▁Itali	-12.1623
kurv	-12.1624
▁assort	-12.1624
Schwamm	-12.1624
▁solid	-12.1624
amara	-12.1624
Pinguin	-12.1624
▁menschliche	-12.1624
▁contin	-12.1624
▁Hecke	-12.1624
nüss	-12.1624
▁tausch	-12.1625
norak	-12.1625
▁amaz	-12.1626
▁durchsichtige	-12.1627
▁antike	-12.1628
▁eigene	-12.1628
ssenger	-12.1629
kugel	-12.163
gurt	-12.1632
▁medal	-12.1637
schnee	-12.1638
▁Taste	-12.1639
adles	-12.1641
lebt	-12.1646
▁malerische	-12.1647
Truck	-12.1648
▁Blöcke	-12.1654
pplies	-12.1664
ateinamerikan	-12.1683
▁Dritte	-12.1686
▁Stütz	-12.1701
Meter	-12.1706
▁Hänge	-12.1718
feuer	-12.1719
▁prächtig	-12.1723
▁fashionabl	-12.177
▁dye	-12.1814
gebilde	-12.182
rbeitsplatz	-12.1861
ottis	-12.1886
ailing	-12.2148
▁bedruckt	-12.2205
issue	-12.2291
▁betreib	-12.2298
cheinwerferlicht	-12.2398
ortable	-12.2454
befördert	-12.254
postal	-12.2549
springer	-12.2629
▁Dreiräder	-12.264
geschlagene	-12.2652
▁Trop	-12.2775
stretched	-12.2838
gerichtete	-12.284
ufgeregte	-12.2866
Doo	-12.2867
rennbahn	-12.2932
coal	-12.2933
▁Trockne	-12.2947
guards	-12.3044
▁Schleif	-12.3281
goldene	-12.3306
trupp	-12.3441
bringt	-12.3493
▁brünett	-12.355
▁gefäl	-12.3882
absperrung	-12.3916
▁bewach	-12.3924
wöl	-12.3944
presst	-12.3999
▁langärmelige	-12.4026
▁schreien	-12.403
bietet	-12.4033
Video	-12.4034
Kugel	-12.4035
Texas	-12.4035
cool	-12.4035
Wettbewerb	-12.4035
baby	-12.4036
gesäumte	-12.4036
Roll	-12.4036
runner	-12.4036
tattoo	-12.4036
Künstler	-12.4036
hellbraune	-12.4037
screen	-12.4037
Schuhen	-12.4037
Veranstaltung	-12.4037
Volleyball	-12.4037
Sport	-12.4037
Laden	-12.4037
schlägt	-12.4037
Fußballspieler	-12.4037
Gebäude	-12.4037
Shorts	-12.4037
Jacke	-12.4037
Feld	-12.4037
Gruppe	-12.4037
zuschauen	-12.4037
white	-12.4037
pink	-12.4038
ficial	-12.4043
gebracht	-12.4059
▁Eiscrem	-12.4071
riends	-12.4083
▁Teenage	-12.4084
wasch	-12.4084
stände	-12.4085
flügel	-12.4088
ircus	-12.4096
▁plansch	-12.4101
▁Saiten	-12.4105
▁quick	-12.4114
ngerichtet	-12.4115
▁blank	-12.4119
ußballspiel	-12.412
ärtiger	-12.412
rünette	-12.412
haften	-12.412
blumen	-12.4121
hauer	-12.4121
mergency	-12.4121
grund	-12.4121
xcited	-12.4121
hafen	-12.4122
ulture	-12.4122
▁Zebra	-12.4122
ografie	-12.4122
utfielder	-12.4122
auptsä	-12.4122
▁Elektro	-12.4122
Cyclone	-12.4122
berqueren	-12.4122
▁Calvin	-12.4122
▁Challenge	-12.4122
▁Presslufth	-12.4122
▁Puma	-12.4122
▁Tambo	-12.4122
▁metropoli	-12.4122
▁triangle	-12.4122
Frauenvolleyball	-12.4122
crabble	-12.4122
mpanadas	-12.4122
▁Elektronik	-12.4122
▁Gehörschutz	-12.4122
▁Kawasaki	-12.4122
▁Pokemon	-12.4122
▁Schneider	-12.4122
▁Turnübung	-12.4122
▁Unterstützung	-12.4122
▁merkwürdig	-12.4122
▁möglich	-12.4122
▁physi	-12.4122
▁pounc	-12.4122
Barbecue	-12.4122
Briefkasten	-12.4122
Farbstiften	-12.4122
Freiheitsstatue	-12.4122
Grundschulkinder	-12.4122
Kiosk	-12.4122
Markierung	-12.4122
Planschbecken	-12.4122
abradoodle	-12.4122
altestelle	-12.4122
beleuchtung	-12.4122
chnappschuss	-12.4122
credibl	-12.4122
dolescent	-12.4122
ettungsschwimmer	-12.4122
geknöpft	-12.4122
geschirr	-12.4122
geschnallt	-12.4122
isenbahnschienen	-12.4122
kühlen	-12.4122
letterausrüstung	-12.4122
manövriert	-12.4122
möbeln	-12.4122
ortillas	-12.4122
prühdose	-12.4122
rancisco	-12.4122
schlüssel	-12.4122
sprecher	-12.4122
stadion	-12.4122
säcken	-12.4122
temporary	-12.4122
uadraten	-12.4122
undschaft	-12.4122
vermählte	-12.4122
wänden	-12.4122
zufinden	-12.4122
▁Abenddämmerung	-12.4122
▁Akrobati	-12.4122
▁Alaska	-12.4122
▁Angelschnur	-12.4122
▁Apparat	-12.4122
▁Atlanta	-12.4122
▁Ausblick	-12.4122
▁Backware	-12.4122
▁Baltimore	-12.4122
▁Basketbälle	-12.4122
▁Bassgitarre	-12.4122
▁Benzin	-12.4122
▁Berufs	-12.4122
▁Brazil	-12.4122
▁Bärten	-12.4122
▁Bürgerkriegs	-12.4122
▁California	-12.4122
▁Chinatown	-12.4122
▁Cockpit	-12.4122
▁Crocs	-12.4122
▁Dokument	-12.4122
▁Drähten	-12.4122
▁Ehemann	-12.4122
▁Einheimische	-12.4122
▁Elektrogitarre	-12.4122
▁Essstäbchen	-12.4122
▁Factory	-12.4122
▁Felsenklippe	-12.4122
▁Fundament	-12.4122
▁Gabelstapler	-12.4122
▁Gasmaske	-12.4122
▁Gebirge	-12.4122
▁Gebäck	-12.4122
▁Gedanken	-12.4122
▁Gerätschaften	-12.4122
▁Gestrüpp	-12.4122
▁Glatzenansatz	-12.4122
▁Happen	-12.4122
▁Harmonika	-12.4122
▁Hausaufgaben	-12.4122
▁Heineken	-12.4122
▁Hockeyschläger	-12.4122
▁Holzkohle	-12.4122
▁Holzpfahl	-12.4122
▁Hopper	-12.4122
▁Hölle	-12.4122
▁Individual	-12.4122
▁James	-12.4122
▁Jogginghose	-12.4122
▁Karaoke	-12.4122
▁Kickboxen	-12.4122
▁Knochen	-12.4122
▁Kokosnüsse	-12.4122
▁Kunsthandwerk	-12.4122
▁Kunstmuseum	-12.4122
▁Kälte	-12.4122
▁Langarmhemd	-12.4122
▁Leotard	-12.4122
▁Liegestütze	-12.4122
▁Lokomotive	-12.4122
▁Löcher	-12.4122
▁MMA	-12.4122
▁Maiskolben	-12.4122
▁Meeresufer	-12.4122
▁Metzger	-12.4122
▁Miniatur	-12.4122
▁Mundharmonika	-12.4122
▁Mütter	-12.4122
▁Needle	-12.4122
▁Neun	-12.4122
▁Notebook	-12.4122
▁Ordnung	-12.4122
▁Paintball	-12.4122
▁Papiertüte	-12.4122
▁Pendler	-12.4122
▁Picture	-12.4122
▁Poolbillard	-12.4122
▁Prüfung	-12.4122
▁Ribbon	-12.4122
▁SWAT	-12.4122
▁Schläfchen	-12.4122
▁Schläuche	-12.4122
▁Schneidebrett	-12.4122
▁Schokoladeneis	-12.4122
▁Seahawks	-12.4122
▁Skipiste	-12.4122
▁Skyline	-12.4122
▁Sombrero	-12.4122
▁Sonnenschein	-12.4122
▁Spagat	-12.4122
▁Spielzeugpferd	-12.4122
▁Sportereignis	-12.4122
▁Sprinkler	-12.4122
▁Strafzettel	-12.4122
▁Strickjacke	-12.4122
▁Stäbchen	-12.4122
▁Swimmer	-12.4122
▁Teammitglied	-12.4122
▁Technik	-12.4122
▁Telefonmasten	-12.4122
▁Truppe	-12.4122
▁Töpferscheibe	-12.4122
▁Universität	-12.4122
▁Verstärker	-12.4122
▁Windsurfe	-12.4122
▁Wohnmobil	-12.4122
▁Wörter	-12.4122
▁YMCA	-12.4122
▁Zentrum	-12.4122
▁abzuwehren	-12.4122
▁aircraft	-12.4122
▁angelehnt	-12.4122
▁apparel	-12.4122
▁aufgemalt	-12.4122
▁balconies	-12.4122
▁beleibte	-12.4122
▁besprechen	-12.4122
▁bloom	-12.4122
▁breitkrempigen	-12.4122
▁brief	-12.4122
▁bügelt	-12.4122
▁cafeteria	-12.4122
▁chubby	-12.4122
▁cityscape	-12.4122
▁cluster	-12.4122
▁consider	-12.4122
▁convertible	-12.4122
▁crutches	-12.4122
▁diskutiert	-12.4122
▁dominoes	-12.4122
▁emotion	-12.4122
▁empor	-12.4122
▁erhebt	-12.4122
▁erklärt	-12.4122
▁extravagant	-12.4122
▁flexible	-12.4122
▁fliederfarbene	-12.4122
▁footbridge	-12.4122
▁foundation	-12.4122
▁französische	-12.4122
▁freuen	-12.4122
▁freundlich	-12.4122
▁frolic	-12.4122
▁frustrated	-12.4122
▁frustriert	-12.4122
▁galoppier	-12.4122
▁gefilmt	-12.4122
▁geneigte	-12.4122
▁gescheckte	-12.4122
▁getupfte	-12.4122
▁glitzernde	-12.4122
▁gähnt	-12.4122
▁heiraten	-12.4122
▁hopscotch	-12.4122
▁hämmer	-12.4122
▁identisch	-12.4122
▁international	-12.4122
▁jugendliche	-12.4122
▁kostet	-12.4122
▁landmark	-12.4122
▁liebkost	-12.4122
▁locomotive	-12.4122
▁lötet	-12.4122
▁magic	-12.4122
▁mailbox	-12.4122
▁mascara	-12.4122
▁megaphone	-12.4122
▁mermaid	-12.4122
▁miniskirt	-12.4122
▁motorboat	-12.4122
▁musikalische	-12.4122
▁muslimische	-12.4122
▁neigt	-12.4122
▁octopus	-12.4122
▁paintbrush	-12.4122
▁pebbl	-12.4122
▁piggyback	-12.4122
▁pineapple	-12.4122
▁poverty	-12.4122
▁prevent	-12.4122
▁prizes	-12.4122
▁prun	-12.4122
▁prunkvolle	-12.4122
▁renovier	-12.4122
▁satchel	-12.4122
▁schlummert	-12.4122
▁schwanger	-12.4122
▁screwdriver	-12.4122
▁senffarbene	-12.4122
▁sheepdog	-12.4122
▁sombrero	-12.4122
▁stalks	-12.4122
▁steaks	-12.4122
▁studies	-12.4122
▁substance	-12.4122
▁sumpfige	-12.4122
▁swimwear	-12.4122
▁technique	-12.4122
▁technology	-12.4122
▁terrace	-12.4122
▁thread	-12.4122
▁trombone	-12.4122
▁ukulele	-12.4122
▁ungepflegte	-12.4122
▁unterbricht	-12.4122
▁unwrap	-12.4122
▁verhindern	-12.4122
▁verzerrte	-12.4122
▁vorliest	-12.4122
▁zerrissene	-12.4122
▁zugedeckt	-12.4122
Monitor	-12.4122
cific	-12.4122
journal	-12.4122
käfig	-12.4122
oskop	-12.4122
pproximate	-12.4122
stimmung	-12.4122
▁Augenbraue	-12.4122
▁Engine	-12.4122
▁Insekt	-12.4122
▁Iowa	-12.4122
▁Kombi	-12.4122
▁Krokodil	-12.4122
▁Mittelalter	-12.4122
▁Pfahl	-12.4122
▁Pickup	-12.4122
▁Reinigungs	-12.4122
▁Scheitel	-12.4122
▁Schindel	-12.4122
▁Scooby	-12.4122
▁Steinstufen	-12.4122
▁Toast	-12.4122
▁UFC	-12.4122
▁Yankee	-12.4122
▁architectur	-12.4122
▁element	-12.4122
▁flüster	-12.4122
▁gleiten	-12.4122
▁herausragen	-12.4122
▁hispanic	-12.4122
▁improv	-12.4122
▁kettle	-12.4122
▁kuschel	-12.4122
▁seaweed	-12.4122
▁skeleton	-12.4122
▁snowmobil	-12.4122
▁unison	-12.4122
▁workbench	-12.4122
eheimnis	-12.4122
wanderweg	-12.4122
zuschlagen	-12.4122
▁Anlass	-12.4122
▁Bandkolleg	-12.4122
▁Castro	-12.4122
▁Frühling	-12.4122
▁Hochzeitsfoto	-12.4122
▁Kapuzenjacke	-12.4122
▁Korean	-12.4122
▁Latzhose	-12.4122
▁Martin	-12.4122
▁Pinien	-12.4122
▁Sumoringe	-12.4122
▁Zwilling	-12.4122
▁bookbag	-12.4122
▁bookstore	-12.4122
▁breakdance	-12.4122
▁geduckt	-12.4122
▁gelandet	-12.4122
▁knietief	-12.4122
▁llama	-12.4122
▁mechanische	-12.4122
▁napkin	-12.4122
▁sauce	-12.4122
▁crush	-12.4122
▁guest	-12.4122
▁prahl	-12.4122
World	-12.4122
lalom	-12.4122
veteran	-12.4122
▁Bierflaschen	-12.4122
▁Fähr	-12.4122
▁Henna	-12.4122
▁Jesus	-12.4122
▁Packung	-12.4122
▁Podest	-12.4122
▁sunrise	-12.4122
▁Krücken	-12.4122
▁Küchentheke	-12.4122
▁Pokal	-12.4122
▁Scout	-12.4122
▁diaper	-12.4122
▁flatbed	-12.4122
▁health	-12.4122
▁sponge	-12.4122
rayola	-12.4122
▁buoy	-12.4122
pfanne	-12.4122
regnant	-12.4122
▁Burka	-12.4122
▁jug	-12.4122
▁kickboxing	-12.4122
▁verstreut	-12.4122
▁Earth	-12.4122
▁Fäuste	-12.4122
▁Gyro	-12.4122
▁Nacken	-12.4122
ristall	-12.4122
▁Enkel	-12.4122
▁deutlich	-12.4122
▁gehören	-12.4122
stufe	-12.4122
▁Schneewehe	-12.4122
▁Horse	-12.4122
▁Story	-12.4122
▁Maulesel	-12.4122
▁final	-12.4122
▁erwischen	-12.4122
▁Leitung	-12.4122
▁Stepp	-12.4122
▁notice	-12.4122
▁outfielder	-12.4122
▁parasol	-12.4122
abrio	-12.4122
alcon	-12.4122
prallen	-12.4122
▁duscht	-12.4122
▁Marine	-12.4122
▁origin	-12.4122
▁spiral	-12.4122
▁rasieren	-12.4122
rudel	-12.4122
▁saust	-12.4122
▁Matsch	-12.4122
▁melon	-12.4122
▁simpl	-12.4122
kko	-12.4122
▁Tuba	-12.4122
▁Colorful	-12.4122
▁horizontal	-12.4122
Hippie	-12.4123
▁repel	-12.4123
ongoli	-12.4123
bdeckung	-12.4123
▁Houst	-12.4123
▁grinsende	-12.4123
▁Ausführ	-12.4123
▁Katzenbab	-12.4123
▁stutz	-12.4124
▁Falke	-12.4124
reizt	-12.4124
▁Barriere	-12.4124
Airways	-12.4125
Touch	-12.4125
▁hügelige	-12.4126
▁Kino	-12.4126
▁save	-12.4128
Court	-12.4128
reinig	-12.4128
▁grob	-12.4128
gegangen	-12.4128
fortun	-12.4129
höhe	-12.4129
stocher	-12.4131
Piercing	-12.4131
ACE	-12.4135
▁Darstell	-12.4138
▁glanc	-12.4143
ohlen	-12.4149
panisch	-12.4154
Industriegebäude	-12.4163
Paris	-12.4163
eburtstagskuchen	-12.4167
Phone	-12.4182
abgelassen	-12.421
panish	-12.4219
▁gestric	-12.4219
chichten	-12.4232
▁Justi	-12.4264
bagger	-12.4294
yeliner	-12.4311
▁goldgelbe	-12.4342
▁rappe	-12.442
overalls	-12.4449
heruntergefallen	-12.4531
Afroamerikanerin	-12.46
crop	-12.4702
Armee	-12.4799
haut	-12.4936
builder	-12.5072
Akkordeonspieler	-12.5439
treiben	-12.6262
Pain	-12.6387
▁navigat	-12.6881
addresses	-12.7005
▁leuchten	-12.726
▁träg	-12.7262
prächtige	-12.7276
▁onlooker	-12.7288
Geländefahr	-12.7306
▁Gläser	-12.736
▁gepunktete	-12.736
▁Africa	-12.7364
Klasse	-12.7367
füttert	-12.7368
Arena	-12.7368
Plakat	-12.7369
etriever	-12.7369
Wettkampf	-12.7369
climb	-12.737
daughter	-12.737
Flugzeug	-12.737
marathon	-12.737
Maschine	-12.737
Uniform	-12.737
trinken	-12.737
Z	-14.3778
